// Auto-generated by PS-006 pipeline — do not edit manually
// Autoencoder — anomaly detection via reconstruction error
// Model size: 19.1 KB

#ifndef AUTOENCODER_TFLITE_H
#define AUTOENCODER_TFLITE_H

#include <stdint.h>

alignas(8) const uint8_t autoencoder_tflite[] = {
  0x1c, 0x00, 0x00, 0x00, 0x54, 0x46, 0x4c, 0x33, 0x14, 0x00, 0x20, 0x00, ,
  0x1c, 0x00, 0x18, 0x00, 0x14, 0x00, 0x10, 0x00, 0x0c, 0x00, 0x00, 0x00, ,
  0x08, 0x00, 0x04, 0x00, 0x14, 0x00, 0x00, 0x00, 0x1c, 0x00, 0x00, 0x00, ,
  0x84, 0x00, 0x00, 0x00, 0x04, 0x01, 0x00, 0x00, 0x3c, 0x2a, 0x00, 0x00, ,
  0x4c, 0x2a, 0x00, 0x00, 0xb8, 0x4b, 0x00, 0x00, 0x03, 0x00, 0x00, 0x00, ,
  0x01, 0x00, 0x00, 0x00, 0x04, 0x00, 0x00, 0x00, 0x66, 0xd5, 0xff, 0xff, ,
  0x0c, 0x00, 0x00, 0x00, 0x1c, 0x00, 0x00, 0x00, 0x3c, 0x00, 0x00, 0x00, ,
  0x0f, 0x00, 0x00, 0x00, 0x73, 0x65, 0x72, 0x76, 0x69, 0x6e, 0x67, 0x5f, ,
  0x64, 0x65, 0x66, 0x61, 0x75, 0x6c, 0x74, 0x00, 0x01, 0x00, 0x00, 0x00, ,
  0x04, 0x00, 0x00, 0x00, 0x70, 0xff, 0xff, 0xff, 0x14, 0x00, 0x00, 0x00, ,
  0x04, 0x00, 0x00, 0x00, 0x08, 0x00, 0x00, 0x00, 0x6f, 0x75, 0x74, 0x70, ,
  0x75, 0x74, 0x5f, 0x30, 0x00, 0x00, 0x00, 0x00, 0x01, 0x00, 0x00, 0x00, ,
  0x04, 0x00, 0x00, 0x00, 0x56, 0xd7, 0xff, 0xff, 0x04, 0x00, 0x00, 0x00, ,
  0x05, 0x00, 0x00, 0x00, 0x69, 0x6e, 0x70, 0x75, 0x74, 0x00, 0x00, 0x00, ,
  0x03, 0x00, 0x00, 0x00, 0x5c, 0x00, 0x00, 0x00, 0x2c, 0x00, 0x00, 0x00, ,
  0x04, 0x00, 0x00, 0x00, 0xb8, 0xff, 0xff, 0xff, 0x18, 0x00, 0x00, 0x00, ,
  0x04, 0x00, 0x00, 0x00, 0x13, 0x00, 0x00, 0x00, 0x43, 0x4f, 0x4e, 0x56, ,
  0x45, 0x52, 0x53, 0x49, 0x4f, 0x4e, 0x5f, 0x4d, 0x45, 0x54, 0x41, 0x44, ,
  0x41, 0x54, 0x41, 0x00, 0xdc, 0xff, 0xff, 0xff, 0x17, 0x00, 0x00, 0x00, ,
  0x04, 0x00, 0x00, 0x00, 0x13, 0x00, 0x00, 0x00, 0x6d, 0x69, 0x6e, 0x5f, ,
  0x72, 0x75, 0x6e, 0x74, 0x69, 0x6d, 0x65, 0x5f, 0x76, 0x65, 0x72, 0x73, ,
  0x69, 0x6f, 0x6e, 0x00, 0x08, 0x00, 0x0c, 0x00, 0x08, 0x00, 0x04, 0x00, ,
  0x08, 0x00, 0x00, 0x00, 0x16, 0x00, 0x00, 0x00, 0x04, 0x00, 0x00, 0x00, ,
  0x13, 0x00, 0x00, 0x00, 0x6d, 0x69, 0x6e, 0x5f, 0x72, 0x75, 0x6e, 0x74, ,
  0x69, 0x6d, 0x65, 0x5f, 0x76, 0x65, 0x72, 0x73, 0x69, 0x6f, 0x6e, 0x00, ,
  0x19, 0x00, 0x00, 0x00, 0x34, 0x29, 0x00, 0x00, 0x2c, 0x29, 0x00, 0x00, ,
  0x0c, 0x28, 0x00, 0x00, 0x34, 0x1b, 0x00, 0x00, 0x64, 0x1a, 0x00, 0x00, ,
  0xd4, 0x15, 0x00, 0x00, 0x64, 0x15, 0x00, 0x00, 0x94, 0x14, 0x00, 0x00, ,
  0x64, 0x14, 0x00, 0x00, 0x94, 0x13, 0x00, 0x00, 0x24, 0x13, 0x00, 0x00, ,
  0x94, 0x0e, 0x00, 0x00, 0xc4, 0x0d, 0x00, 0x00, 0xf4, 0x00, 0x00, 0x00, ,
  0xec, 0x00, 0x00, 0x00, 0xe4, 0x00, 0x00, 0x00, 0xdc, 0x00, 0x00, 0x00, ,
  0xd4, 0x00, 0x00, 0x00, 0xcc, 0x00, 0x00, 0x00, 0xc4, 0x00, 0x00, 0x00, ,
  0xbc, 0x00, 0x00, 0x00, 0xb4, 0x00, 0x00, 0x00, 0x94, 0x00, 0x00, 0x00, ,
  0x74, 0x00, 0x00, 0x00, 0x04, 0x00, 0x00, 0x00, 0x56, 0xd8, 0xff, 0xff, ,
  0x04, 0x00, 0x00, 0x00, 0x60, 0x00, 0x00, 0x00, 0x0c, 0x00, 0x00, 0x00, ,
  0x08, 0x00, 0x0e, 0x00, 0x08, 0x00, 0x04, 0x00, 0x08, 0x00, 0x00, 0x00, ,
  0x10, 0x00, 0x00, 0x00, 0x28, 0x00, 0x00, 0x00, 0x00, 0x00, 0x06, 0x00, ,
  0x08, 0x00, 0x04, 0x00, 0x06, 0x00, 0x00, 0x00, 0x04, 0x00, 0x00, 0x00, ,
  0x01, 0x00, 0x00, 0x00, 0xeb, 0x03, 0x00, 0x00, 0x0c, 0x00, 0x18, 0x00, ,
  0x14, 0x00, 0x10, 0x00, 0x0c, 0x00, 0x04, 0x00, 0x0c, 0x00, 0x00, 0x00, ,
  0xfa, 0xff, 0x32, 0x26, 0xcc, 0xd6, 0x78, 0x1e, 0x02, 0x00, 0x00, 0x00, ,
  0x02, 0x00, 0x00, 0x00, 0x04, 0x00, 0x00, 0x00, 0x06, 0x00, 0x00, 0x00, ,
  0x32, 0x2e, 0x31, 0x39, 0x2e, 0x30, 0x00, 0x00, 0xc2, 0xd8, 0xff, 0xff, ,
  0x04, 0x00, 0x00, 0x00, 0x10, 0x00, 0x00, 0x00, 0x00, 0x00, 0x00, 0x00, ,
  0x00, 0x00, 0x00, 0x00, 0x00, 0x00, 0x00, 0x00, 0x00, 0x00, 0x00, 0x00, ,
  0xde, 0xd8, 0xff, 0xff, 0x04, 0x00, 0x00, 0x00, 0x10, 0x00, 0x00, 0x00, ,
  0x31, 0x2e, 0x31, 0x34, 0x2e, 0x30, 0x00, 0x00, 0x00, 0x00, 0x00, 0x00, ,
  0x00, 0x00, 0x00, 0x00, 0x7c, 0xb6, 0xff, 0xff, 0x80, 0xb6, 0xff, 0xff, ,
  0x84, 0xb6, 0xff, 0xff, 0x88, 0xb6, 0xff, 0xff, 0x8c, 0xb6, 0xff, 0xff, ,
  0x90, 0xb6, 0xff, 0xff, 0x94, 0xb6, 0xff, 0xff, 0x98, 0xb6, 0xff, 0xff, ,
  0x1a, 0xd9, 0xff, 0xff, 0x04, 0x00, 0x00, 0x00, 0xc0, 0x0c, 0x00, 0x00, ,
  0xf3, 0x56, 0xcf, 0x10, 0x02, 0xed, 0xdd, 0x58, 0x20, 0xf2, 0xe3, 0x32, ,
  0x36, 0xf8, 0x03, 0xe6, 0xfe, 0xbf, 0x3a, 0xd6, 0xeb, 0x44, 0xac, 0x3c, ,
  0xdb, 0x05, 0xd9, 0x28, 0x2c, 0x37, 0xeb, 0x0b, 0x22, 0xff, 0x2d, 0x7f, ,
  0x20, 0x5e, 0x31, 0x1c, 0x54, 0x14, 0x3c, 0x1a, 0xbf, 0x03, 0xe1, 0xf3, ,
  0xf7, 0x03, 0x12, 0xfb, 0xd9, 0xf5, 0xb6, 0xea, 0x23, 0xdd, 0xf6, 0xfb, ,
  0x0f, 0x45, 0x46, 0x30, 0x02, 0xf6, 0xb5, 0xf8, 0x0d, 0xef, 0x4e, 0x1c, ,
  0x27, 0xff, 0x1b, 0xeb, 0xc3, 0x02, 0xf3, 0x2b, 0x08, 0x41, 0xf1, 0x36, ,
  0x35, 0x07, 0x8f, 0x7c, 0x4f, 0xf9, 0x2b, 0x9d, 0x1f, 0xcf, 0xfe, 0xee, ,
  0xb5, 0x49, 0x1a, 0x49, 0x44, 0x17, 0x19, 0xb3, 0xac, 0xee, 0xe4, 0x20, ,
  0xf9, 0xb2, 0x7f, 0xac, 0xed, 0x22, 0x48, 0xf6, 0x14, 0xb0, 0xfa, 0xe3, ,
  0x02, 0x19, 0x06, 0x27, 0xd4, 0x29, 0x0d, 0xeb, 0xbe, 0xd8, 0x21, 0x0d, ,
  0x34, 0xee, 0x0f, 0x27, 0x27, 0xf6, 0xc4, 0x03, 0x30, 0xe2, 0xf9, 0xc5, ,
  0x84, 0x9d, 0x15, 0xa8, 0x20, 0x1c, 0x01, 0xb8, 0xe6, 0x01, 0xce, 0x5e, ,
  0x7f, 0x07, 0x16, 0xab, 0x55, 0x2f, 0x44, 0x96, 0x1f, 0x16, 0x08, 0xef, ,
  0xea, 0xd4, 0xc9, 0xf4, 0xd7, 0xe9, 0xeb, 0xf9, 0xe9, 0xe4, 0x24, 0xfc, ,
  0xfe, 0x09, 0x2d, 0xef, 0x6d, 0x0c, 0x3e, 0x2a, 0x14, 0x3a, 0xf3, 0x15, ,
  0xdf, 0xf0, 0x09, 0xcf, 0x2a, 0xdd, 0x3a, 0x1e, 0x60, 0x16, 0x0a, 0xc2, ,
  0xe6, 0x16, 0xe4, 0xec, 0xcd, 0x0d, 0xe8, 0xeb, 0x64, 0x23, 0xe7, 0x30, ,
  0xe6, 0xfc, 0x06, 0xbe, 0x39, 0xcd, 0x57, 0x87, 0xb5, 0xcc, 0x8a, 0x7f, ,
  0x12, 0x64, 0xb8, 0x54, 0xee, 0x8e, 0xd1, 0xc9, 0x12, 0xe1, 0xea, 0xf5, ,
  0xd4, 0xec, 0x0d, 0x0c, 0x10, 0xd2, 0xf8, 0x47, 0xee, 0xfd, 0xf2, 0xd2, ,
  0xea, 0xbc, 0x2c, 0x1a, 0x5f, 0x2a, 0xff, 0x16, 0xff, 0xfe, 0x08, 0xf8, ,
  0x08, 0x11, 0x05, 0x00, 0xf1, 0xdd, 0xd2, 0x0d, 0xf1, 0xf3, 0xce, 0x05, ,
  0xf0, 0x0e, 0xf5, 0x81, 0xaf, 0x15, 0x0c, 0xa4, 0xef, 0xd8, 0x13, 0xbf, ,
  0x1e, 0x60, 0xbb, 0x65, 0x45, 0x2a, 0x6f, 0xbb, 0xe3, 0xdb, 0x38, 0x9f, ,
  0x45, 0x18, 0x2f, 0x0f, 0x0e, 0xcd, 0x5d, 0xe9, 0x33, 0x14, 0xdf, 0xfa, ,
  0xfb, 0x16, 0xec, 0x01, 0x14, 0xfe, 0xfa, 0xfd, 0xfc, 0x25, 0x08, 0x2e, ,
  0x10, 0xdf, 0x11, 0xf4, 0x09, 0xfe, 0xdc, 0xc6, 0xb8, 0xaa, 0xf7, 0xff, ,
  0x26, 0x13, 0x2c, 0xf5, 0x1a, 0xf8, 0xeb, 0xb0, 0xa9, 0x07, 0xea, 0x1d, ,
  0x37, 0x15, 0x08, 0x22, 0xfc, 0x01, 0xf0, 0x18, 0xdc, 0xe0, 0x4e, 0xaa, ,
  0xd4, 0x13, 0x14, 0x76, 0xc7, 0x0a, 0xa9, 0x7f, 0x1e, 0x01, 0x02, 0xe4, ,
  0x20, 0xe3, 0x0f, 0x05, 0x0c, 0x03, 0x09, 0xfb, 0x16, 0x04, 0x10, 0x0b, ,
  0xfd, 0x0b, 0xef, 0x19, 0x0b, 0x23, 0x1f, 0x2d, 0xf5, 0xd7, 0xbc, 0x08, ,
  0xff, 0xe9, 0xdb, 0xdf, 0xe6, 0x1e, 0x10, 0x1a, 0xb2, 0xe6, 0xfb, 0x16, ,
  0xf8, 0xe7, 0xf2, 0x03, 0x0a, 0x00, 0x04, 0xcf, 0x92, 0x2c, 0x1e, 0xc2, ,
  0x11, 0xfa, 0xea, 0x14, 0x48, 0x0e, 0x81, 0x6e, 0x4a, 0x36, 0x43, 0xb1, ,
  0xeb, 0xe6, 0x2d, 0xaa, 0x17, 0xfc, 0x18, 0x11, 0x05, 0x08, 0xf2, 0x08, ,
  0x05, 0xea, 0x0b, 0xe1, 0xf2, 0x09, 0x16, 0x07, 0xfa, 0xf6, 0xfa, 0xf6, ,
  0x11, 0x0a, 0xf9, 0x09, 0xfc, 0x00, 0xfb, 0xf6, 0xf8, 0x11, 0x0b, 0x19, ,
  0x25, 0x04, 0xf2, 0xd9, 0xd5, 0xdf, 0x0d, 0xfa, 0xfb, 0x58, 0xf9, 0x2d, ,
  0x11, 0x08, 0x08, 0xfe, 0xb5, 0x17, 0x18, 0x11, 0x33, 0xf0, 0xfc, 0x47, ,
  0x33, 0xf6, 0x81, 0x25, 0x01, 0xeb, 0x19, 0xd8, 0x07, 0x0e, 0x41, 0xdd, ,
  0xd3, 0x12, 0x11, 0x14, 0x0b, 0xfd, 0xf9, 0xf4, 0x06, 0xfa, 0x19, 0xde, ,
  0xdb, 0x18, 0x06, 0xf9, 0xfe, 0x09, 0x03, 0xfc, 0xf9, 0xfe, 0xfc, 0x0c, ,
  0xfe, 0x0c, 0x01, 0xf8, 0x07, 0x20, 0xff, 0x0f, 0xf6, 0xf0, 0xec, 0xe4, ,
  0x03, 0x02, 0x11, 0xf9, 0x0e, 0xba, 0x11, 0x43, 0x35, 0x06, 0x29, 0xc3, ,
  0x93, 0x04, 0x07, 0xbe, 0x41, 0xf5, 0xf9, 0xc0, 0xdd, 0x34, 0xfe, 0x71, ,
  0x52, 0xfc, 0x3c, 0x81, 0x2c, 0xc9, 0x2e, 0xba, 0xfc, 0x53, 0x45, 0x0f, ,
  0x0c, 0x28, 0xd8, 0x2f, 0xe9, 0x0a, 0xfb, 0xdd, 0xed, 0xf0, 0x3c, 0xbe, ,
  0x12, 0x09, 0xfa, 0x1a, 0xf7, 0x19, 0xe4, 0x09, 0xfd, 0x01, 0x2b, 0xd3, ,
  0xf4, 0x00, 0xe5, 0x2b, 0x65, 0x55, 0x57, 0x08, 0x20, 0xf1, 0xf7, 0xd8, ,
  0xf0, 0x81, 0xd8, 0x2b, 0xfe, 0x00, 0x07, 0xc0, 0xf5, 0x05, 0x07, 0xcf, ,
  0xc5, 0x28, 0xfe, 0x1b, 0xf2, 0x38, 0xbe, 0x41, 0x3d, 0xe6, 0x2a, 0x9a, ,
  0x32, 0xc3, 0x12, 0xd4, 0xd7, 0xe5, 0xeb, 0xff, 0xd7, 0x17, 0xe6, 0xd5, ,
  0xe9, 0xe0, 0xe4, 0x06, 0xed, 0xd9, 0xd9, 0x12, 0xe1, 0xfb, 0xf6, 0x0c, ,
  0x1f, 0x1e, 0x33, 0x25, 0x13, 0xef, 0xff, 0xee, 0xf3, 0x0f, 0x30, 0x19, ,
  0x1f, 0xdf, 0xef, 0xd6, 0x1e, 0x06, 0x1c, 0x0a, 0x00, 0x99, 0x08, 0xcd, ,
  0xd4, 0x07, 0x1f, 0xb6, 0xd1, 0x0c, 0x27, 0xba, 0x81, 0xe2, 0xf9, 0x59, ,
  0x0c, 0x28, 0xac, 0x4d, 0x2c, 0x2a, 0x59, 0xb2, 0xed, 0xbe, 0x11, 0xf6, ,
  0xec, 0xf0, 0x12, 0x10, 0xf3, 0x05, 0xea, 0xf6, 0xdd, 0x11, 0xd0, 0xf1, ,
  0xee, 0xf6, 0x1f, 0xd3, 0x21, 0xda, 0x13, 0xf9, 0xf7, 0xf9, 0xf0, 0xde, ,
  0x01, 0xeb, 0x16, 0x16, 0xed, 0x1c, 0x06, 0x20, 0x15, 0x0a, 0x21, 0x22, ,
  0x16, 0xfe, 0x07, 0xeb, 0xff, 0xd4, 0x36, 0x33, 0x22, 0x05, 0x2e, 0xac, ,
  0xb8, 0x17, 0x21, 0xde, 0x07, 0x33, 0xd4, 0x2b, 0x1c, 0xf6, 0x81, 0x47, ,
  0x1a, 0x39, 0x51, 0xc9, 0xff, 0xe3, 0x32, 0xc2, 0xf7, 0x13, 0x03, 0x12, ,
  0x10, 0xe2, 0x04, 0xf4, 0xeb, 0x10, 0xfd, 0xdc, 0x02, 0x01, 0x05, 0xe7, ,
  0xfe, 0x02, 0x0a, 0x1d, 0x1e, 0x13, 0x12, 0x13, 0xfc, 0xea, 0xec, 0xfa, ,
  0xfc, 0xed, 0xef, 0xe8, 0xfc, 0x0b, 0x03, 0xf4, 0xef, 0xed, 0x00, 0xf7, ,
  0x12, 0xf3, 0x08, 0xbe, 0xed, 0xfa, 0xf9, 0x01, 0xee, 0x35, 0x1e, 0x52, ,
  0x48, 0x3c, 0xf0, 0xe9, 0xd3, 0x17, 0xe7, 0xf1, 0xbc, 0xb9, 0x08, 0x00, ,
  0x37, 0x1e, 0x0b, 0xcd, 0xdf, 0x0d, 0x42, 0x46, 0x1f, 0x39, 0xc7, 0x10, ,
  0xde, 0xfa, 0xd5, 0x11, 0x03, 0xec, 0x14, 0xfb, 0x22, 0xee, 0x1d, 0xd9, ,
  0x14, 0xf0, 0x16, 0x0b, 0x20, 0x28, 0xe8, 0x7f, 0x9f, 0x24, 0xee, 0x44, ,
  0x26, 0x28, 0x06, 0x16, 0xfb, 0xbe, 0x0d, 0xe9, 0x93, 0xb9, 0x12, 0xe9, ,
  0xfb, 0xe3, 0xf3, 0xc3, 0x5e, 0x21, 0xa5, 0x19, 0xb0, 0x1b, 0xe1, 0x5b, ,
  0x5b, 0xf1, 0xff, 0xc3, 0xa9, 0x89, 0xa3, 0x66, 0xd2, 0x2c, 0xa6, 0x4a, ,
  0x1b, 0x77, 0xc9, 0xdf, 0x16, 0x40, 0x12, 0x74, 0x2b, 0x5f, 0x4e, 0x11, ,
  0x0c, 0x23, 0x32, 0xf2, 0xf1, 0x44, 0x2f, 0x9c, 0x1e, 0x81, 0x47, 0x12, ,
  0x23, 0x50, 0x91, 0xec, 0x19, 0xd2, 0xfb, 0x18, 0xf6, 0x5c, 0x17, 0x22, ,
  0xf0, 0xf8, 0xf4, 0x41, 0xad, 0xd9, 0x3a, 0xc3, 0xdd, 0xf7, 0x36, 0x9b, ,
  0x24, 0x14, 0xcf, 0x6a, 0xb2, 0x02, 0xdd, 0x23, 0x36, 0xe8, 0x0a, 0xc8, ,
  0xf1, 0x5c, 0x0d, 0x63, 0xc2, 0x2a, 0x0d, 0x4c, 0x51, 0x1d, 0xf7, 0xbf, ,
  0xb6, 0xed, 0xd1, 0x47, 0x29, 0x26, 0x30, 0xd4, 0x1a, 0x54, 0xec, 0x27, ,
  0xcc, 0x1a, 0xc0, 0xf4, 0xf7, 0x1d, 0x0a, 0x29, 0xe0, 0x07, 0xe3, 0x9b, ,
  0x5e, 0xb3, 0x43, 0xe7, 0x7f, 0x12, 0x45, 0xdf, 0x04, 0xed, 0xe9, 0xdf, ,
  0x00, 0xdd, 0x05, 0x00, 0xf2, 0xf7, 0x14, 0xe7, 0x50, 0x1a, 0xf9, 0x02, ,
  0xc9, 0xdc, 0x0a, 0xe6, 0x18, 0xf1, 0x0b, 0xb8, 0xf3, 0x5a, 0x5c, 0x4c, ,
  0xb3, 0xe6, 0xe0, 0x7f, 0x19, 0xf2, 0xfe, 0xf7, 0x01, 0xf8, 0x09, 0xf5, ,
  0x04, 0x11, 0x02, 0xfc, 0x10, 0xff, 0x0e, 0x0e, 0x03, 0x04, 0xfd, 0x02, ,
  0x15, 0xfa, 0x08, 0xfb, 0xfa, 0x07, 0xe7, 0xfc, 0xf4, 0x12, 0xfc, 0x03, ,
  0xf5, 0xfe, 0x08, 0x0d, 0xfe, 0xff, 0xf9, 0xff, 0x08, 0xef, 0x20, 0xe8, ,
  0x04, 0x09, 0x03, 0xd2, 0xcc, 0xf8, 0xcb, 0xe2, 0x33, 0x28, 0x01, 0x18, ,
  0xf8, 0x0d, 0xcd, 0x15, 0x21, 0x25, 0x50, 0xec, 0xf0, 0xde, 0x32, 0xa3, ,
  0x32, 0x43, 0x5d, 0x4d, 0x33, 0x25, 0x0f, 0x15, 0x07, 0xfd, 0xf6, 0xf6, ,
  0x02, 0x1a, 0x81, 0x56, 0xe2, 0x01, 0xf6, 0xe6, 0x04, 0xe9, 0x0f, 0x01, ,
  0x0f, 0xf7, 0x0e, 0x50, 0xbd, 0x26, 0xea, 0x13, 0xff, 0x0c, 0xf6, 0xfb, ,
  0xf3, 0xff, 0x1b, 0xeb, 0xea, 0xc6, 0x56, 0x48, 0x2c, 0xeb, 0x27, 0xbf, ,
  0xcc, 0xff, 0xeb, 0xb8, 0x1a, 0x9b, 0x06, 0xfa, 0x0d, 0x4d, 0xf3, 0x5c, ,
  0x55, 0xef, 0x1e, 0x87, 0xea, 0x81, 0x26, 0x8e, 0xf6, 0xc1, 0x18, 0xe5, ,
  0x45, 0xbe, 0x0b, 0xfa, 0xcd, 0x1d, 0xb0, 0x16, 0xda, 0xf9, 0x11, 0x1d, ,
  0xee, 0xf2, 0xdf, 0xfb, 0xde, 0x06, 0x0c, 0x29, 0x38, 0x1c, 0x23, 0xfa, ,
  0xf0, 0x01, 0xe6, 0xd4, 0xf5, 0xfa, 0x45, 0x5b, 0x59, 0x17, 0x27, 0xd7, ,
  0x09, 0x21, 0xe6, 0xd2, 0xdb, 0x09, 0x21, 0x3d, 0x12, 0x24, 0x0b, 0xff, ,
  0x3d, 0xf5, 0xf7, 0xa5, 0x26, 0xa1, 0x7f, 0xab, 0xec, 0xe0, 0xdd, 0x6a, ,
  0xf6, 0x7d, 0xf6, 0x42, 0xef, 0x5b, 0x17, 0x18, 0xcc, 0x10, 0x33, 0x32, ,
  0x56, 0x29, 0x32, 0x20, 0x1e, 0x65, 0x53, 0xba, 0x1d, 0x24, 0xb0, 0x61, ,
  0x99, 0x69, 0xbe, 0x17, 0x0f, 0xdb, 0x2b, 0xf1, 0x03, 0xc8, 0x00, 0x1b, ,
  0x1c, 0x06, 0xf0, 0x1f, 0xd6, 0x33, 0xf7, 0x06, 0xe9, 0xca, 0xeb, 0xed, ,
  0xe8, 0x05, 0x09, 0x20, 0x62, 0xef, 0xba, 0x3c, 0xca, 0xe4, 0xf9, 0x1b, ,
  0x06, 0xb4, 0x2b, 0xd8, 0xde, 0xe3, 0xbd, 0x28, 0x26, 0x41, 0x97, 0x4e, ,
  0xfb, 0xe6, 0xad, 0xd1, 0xc6, 0xc9, 0xd2, 0xbf, 0xf4, 0xf5, 0xe2, 0x04, ,
  0x04, 0xf4, 0xcf, 0x30, 0x94, 0x62, 0xe4, 0x7f, 0xe8, 0x39, 0xcb, 0xf9, ,
  0xc4, 0xf6, 0xe8, 0xd1, 0x47, 0xc7, 0x4c, 0xb5, 0xec, 0xb8, 0x06, 0xfd, ,
  0x36, 0x0f, 0xf8, 0xf7, 0xd8, 0x05, 0x01, 0xf7, 0xfe, 0x01, 0xf0, 0x07, ,
  0x0f, 0x10, 0xec, 0x0e, 0x81, 0x13, 0x11, 0xce, 0x32, 0x1f, 0x3b, 0xc6, ,
  0x01, 0xd5, 0xcf, 0x29, 0xd2, 0xf4, 0xfe, 0x2f, 0x38, 0x03, 0xf5, 0xf9, ,
  0x02, 0xf7, 0x03, 0x02, 0xf8, 0xf6, 0x00, 0x0d, 0x00, 0xf5, 0x01, 0x06, ,
  0xf9, 0xfa, 0x04, 0xfe, 0x13, 0xfa, 0x01, 0xf6, 0xf9, 0xf7, 0x00, 0x05, ,
  0xf9, 0xf7, 0xff, 0xf5, 0x02, 0x03, 0xfc, 0x08, 0xff, 0x01, 0xf8, 0xfd, ,
  0xdc, 0x12, 0x00, 0x2a, 0x12, 0xfc, 0xff, 0x7f, 0x1a, 0xde, 0x07, 0x0d, ,
  0x4d, 0xff, 0x04, 0xe0, 0xec, 0xc7, 0x35, 0xcb, 0xad, 0xf9, 0x1a, 0x5f, ,
  0x2e, 0xf9, 0xd4, 0x07, 0xdd, 0xfc, 0x07, 0xee, 0x03, 0x0c, 0xe5, 0xfc, ,
  0xfa, 0x15, 0x1a, 0xf9, 0xf8, 0x19, 0x07, 0x1a, 0x02, 0x07, 0xdf, 0xe6, ,
  0x07, 0xeb, 0x09, 0xf2, 0x04, 0x0c, 0x15, 0x01, 0x05, 0xf9, 0xf4, 0xf7, ,
  0x29, 0x25, 0x17, 0xee, 0xd4, 0x06, 0xf0, 0x17, 0x01, 0xe9, 0x10, 0xfd, ,
  0x08, 0x01, 0x18, 0xfe, 0xd7, 0x01, 0xf5, 0xf6, 0x17, 0x0a, 0xee, 0x0e, ,
  0x2a, 0xda, 0x81, 0x48, 0x26, 0x19, 0x17, 0xcb, 0xfe, 0xfc, 0x11, 0xe1, ,
  0xf3, 0xfc, 0x0b, 0x0d, 0xf3, 0x00, 0x03, 0x01, 0xf5, 0xff, 0xfa, 0xfa, ,
  0xfc, 0xfd, 0xff, 0x04, 0xfa, 0xfe, 0xfa, 0xf8, 0x0a, 0xf8, 0xf4, 0xf2, ,
  0xf4, 0xff, 0x03, 0xf5, 0x03, 0x07, 0xf8, 0x04, 0x05, 0xfe, 0x0b, 0x06, ,
  0x0c, 0x06, 0x03, 0xfd, 0x06, 0x10, 0xfe, 0xec, 0xec, 0xf2, 0xf9, 0x16, ,
  0x99, 0xf4, 0x0a, 0xc3, 0xf0, 0x23, 0x01, 0xb0, 0x0f, 0xe8, 0xd3, 0x27, ,
  0x59, 0x09, 0x28, 0xdd, 0xf7, 0x2f, 0x26, 0xe3, 0x01, 0x3c, 0x37, 0x25, ,
  0xf7, 0xf6, 0xeb, 0x04, 0xdb, 0x12, 0xfc, 0xfd, 0x13, 0xfe, 0x81, 0x6b, ,
  0x95, 0x17, 0xe1, 0xe8, 0x3c, 0xe8, 0x36, 0xe7, 0xec, 0xef, 0xcd, 0x52, ,
  0xcd, 0x01, 0xf9, 0x13, 0x1e, 0x1c, 0x2c, 0x00, 0xf9, 0x05, 0xf8, 0xfe, ,
  0xe4, 0xd1, 0x12, 0x29, 0x20, 0x0e, 0x11, 0x0e, 0x61, 0x12, 0xd7, 0x46, ,
  0xc6, 0xf3, 0xd6, 0x21, 0xf7, 0xe2, 0x34, 0xb0, 0xcf, 0x19, 0xaa, 0x7f, ,
  0xcc, 0x22, 0xb2, 0x3d, 0xf9, 0x2d, 0xf4, 0xe6, 0x03, 0xf7, 0x30, 0x52, ,
  0x59, 0x23, 0x1d, 0x3a, 0x19, 0x4d, 0x36, 0x0d, 0xe8, 0xcb, 0xa6, 0xd7, ,
  0xad, 0x17, 0xcc, 0xd2, 0xe0, 0xed, 0x31, 0xeb, 0x2e, 0xd0, 0x03, 0xe5, ,
  0xfe, 0x10, 0xe4, 0x0c, 0xf5, 0x3b, 0xfc, 0xf9, 0xd0, 0x28, 0x06, 0xf2, ,
  0xda, 0x08, 0x10, 0x7f, 0x3f, 0x06, 0xfb, 0x1d, 0xca, 0xfd, 0x11, 0xfe, ,
  0x18, 0xd5, 0x35, 0x93, 0xe4, 0xea, 0xcd, 0x63, 0x05, 0x13, 0xc7, 0x23, ,
  0xda, 0xd4, 0xf0, 0xdf, 0x1c, 0xfe, 0xea, 0x19, 0x09, 0x24, 0xf5, 0x2e, ,
  0x0f, 0xfb, 0xd8, 0xf0, 0x09, 0x2c, 0x04, 0x18, 0xc9, 0xfb, 0xff, 0x2a, ,
  0x27, 0x08, 0xff, 0x09, 0x10, 0xdf, 0xf7, 0xee, 0xfb, 0x1b, 0x16, 0x4b, ,
  0x26, 0x1d, 0xe6, 0x00, 0xfe, 0xf7, 0xde, 0xdd, 0xe4, 0xef, 0xcd, 0xcf, ,
  0x0f, 0xf8, 0x23, 0xab, 0xe6, 0x21, 0xcc, 0x1a, 0xd1, 0x09, 0xdf, 0x05, ,
  0x40, 0xec, 0xea, 0xb8, 0x26, 0xd2, 0x2b, 0xe2, 0xe6, 0x60, 0x46, 0x3f, ,
  0x1f, 0x16, 0x11, 0xe8, 0xee, 0x01, 0x17, 0xf8, 0xef, 0xf9, 0x7f, 0x91, ,
  0x26, 0xe7, 0xdf, 0x37, 0xd1, 0x21, 0xda, 0x23, 0xfb, 0x00, 0x0f, 0x1f, ,
  0xe0, 0x34, 0xdd, 0x12, 0xfe, 0xef, 0xeb, 0xe5, 0x16, 0x0b, 0x00, 0x08, ,
  0x0a, 0xfb, 0xfa, 0x25, 0x05, 0x00, 0x09, 0xe9, 0x47, 0x52, 0x02, 0x0b, ,
  0x09, 0x18, 0xe2, 0x2d, 0xd8, 0xba, 0x1f, 0x7f, 0x43, 0x2b, 0x02, 0xb2, ,
  0xd8, 0x6d, 0x40, 0x20, 0xe2, 0xfb, 0x00, 0xfd, 0xee, 0xf1, 0x1c, 0x09, ,
  0xf8, 0x07, 0x0d, 0x0d, 0xec, 0x0b, 0xf2, 0xf3, 0xff, 0xf6, 0x03, 0xf9, ,
  0x07, 0x01, 0xfa, 0xf7, 0xfb, 0x06, 0xf8, 0x06, 0x0c, 0xf1, 0x02, 0x0e, ,
  0xfc, 0xf9, 0xf9, 0x01, 0x04, 0x17, 0xf4, 0x03, 0xce, 0x2f, 0x04, 0xed, ,
  0xd5, 0x0a, 0x06, 0x14, 0x35, 0x0e, 0x02, 0x30, 0x1b, 0xe1, 0x08, 0xfb, ,
  0x25, 0xf7, 0x2e, 0xce, 0xce, 0xe2, 0xd0, 0x7f, 0x14, 0x38, 0xc4, 0x18, ,
  0xf1, 0xf4, 0xe5, 0xe4, 0xeb, 0x17, 0xfb, 0xf3, 0x17, 0x0c, 0x04, 0x24, ,
  0xf6, 0xfb, 0xea, 0x1b, 0xef, 0x06, 0x0f, 0x10, 0x16, 0xf9, 0x07, 0xf8, ,
  0xf4, 0xfa, 0xea, 0xf5, 0x07, 0x03, 0x15, 0x14, 0xef, 0xf3, 0xe1, 0x0c, ,
  0x00, 0x21, 0x0a, 0x24, 0x05, 0x12, 0x46, 0xe9, 0x17, 0x0b, 0x0f, 0x24, ,
  0x08, 0xf8, 0xc2, 0x2e, 0x4f, 0xe4, 0x0b, 0xbb, 0x1c, 0x28, 0xe5, 0xe7, ,
  0xa3, 0xd5, 0xf4, 0x3d, 0xe8, 0xfb, 0xde, 0x36, 0xdd, 0x1e, 0xca, 0xc3, ,
  0xd6, 0xec, 0xaf, 0xe5, 0xd1, 0xec, 0xf9, 0x01, 0x15, 0xf4, 0x81, 0x39, ,
  0xd9, 0x5c, 0x15, 0x45, 0xb2, 0x2d, 0xdb, 0x37, 0x02, 0xe7, 0x0d, 0x13, ,
  0x10, 0xea, 0x2f, 0xdc, 0x41, 0x11, 0x29, 0x07, 0xf9, 0xd5, 0xf5, 0xf0, ,
  0x4b, 0xbf, 0x16, 0x7f, 0x3e, 0xeb, 0x56, 0xdb, 0xa5, 0xf5, 0x08, 0x95, ,
  0x2d, 0xc1, 0xfb, 0x0d, 0xd7, 0xfe, 0xd9, 0x1f, 0x3b, 0xf9, 0x2d, 0x9e, ,
  0xf6, 0xf0, 0x24, 0xcf, 0xec, 0x0b, 0x30, 0x07, 0xf3, 0xd3, 0x03, 0xd0, ,
  0x01, 0xb4, 0xf1, 0xf0, 0xf1, 0xe6, 0x18, 0xfe, 0x1d, 0xf5, 0xfc, 0xf7, ,
  0xe6, 0x0c, 0xe4, 0xea, 0x0d, 0x2a, 0x29, 0x48, 0xe7, 0x0e, 0x03, 0x00, ,
  0xe5, 0xa3, 0x9d, 0xa6, 0xba, 0xf0, 0x1d, 0x08, 0xf0, 0x39, 0xf0, 0x17, ,
  0x09, 0xfe, 0xea, 0x16, 0x1a, 0x56, 0xff, 0x23, 0x26, 0x23, 0xe2, 0xca, ,
  0xd9, 0xd9, 0xee, 0xee, 0xd5, 0xdf, 0xc2, 0x22, 0xf3, 0xd2, 0xa6, 0x01, ,
  0xf2, 0x7f, 0x04, 0xe0, 0xcf, 0xd1, 0xd8, 0xd4, 0xfe, 0xd8, 0xde, 0x21, ,
  0x12, 0xee, 0x51, 0xa7, 0x3b, 0xac, 0x1f, 0xbd, 0x3b, 0xe1, 0xff, 0xbc, ,
  0xf3, 0xf7, 0xed, 0x16, 0x3c, 0xc6, 0x54, 0xcc, 0x2e, 0xd7, 0xf6, 0xea, ,
  0x27, 0x26, 0x32, 0x25, 0xe5, 0xab, 0xfa, 0x33, 0x23, 0x02, 0x32, 0xca, ,
  0x90, 0xff, 0x0a, 0x87, 0xf7, 0xfc, 0xed, 0x13, 0x62, 0x2b, 0xbd, 0x7f, ,
  0x24, 0x26, 0x44, 0x98, 0x01, 0xce, 0x1f, 0xcc, 0x09, 0x33, 0x1e, 0x0c, ,
  0x34, 0xcc, 0x16, 0x05, 0x0d, 0xf2, 0x0a, 0xd5, 0xd6, 0x0c, 0xe8, 0x38, ,
  0xd6, 0x03, 0xec, 0xdf, 0x16, 0xe6, 0xd3, 0xca, 0xb8, 0xe5, 0xe1, 0x11, ,
  0xeb, 0x26, 0xce, 0xc8, 0xf6, 0xf6, 0x16, 0xe4, 0xf2, 0xef, 0x02, 0x08, ,
  0x15, 0x3c, 0xd4, 0x16, 0xdb, 0x00, 0xf1, 0x53, 0x5d, 0x2a, 0xe4, 0xf8, ,
  0xfe, 0xbd, 0x23, 0x16, 0x42, 0x29, 0x6a, 0xc1, 0xf3, 0xc2, 0xa7, 0x26, ,
  0x02, 0xff, 0xeb, 0x1b, 0xdc, 0x60, 0xb4, 0xda, 0xc9, 0xa2, 0xc5, 0xd6, ,
  0xc6, 0xef, 0xe2, 0x00, 0xe8, 0x08, 0x6b, 0xa7, 0x67, 0x81, 0x31, 0x8b, ,
  0x0d, 0xc9, 0x0b, 0xbd, 0x04, 0xe6, 0xf0, 0xc8, 0x3c, 0xb0, 0x35, 0xab, ,
  0x3a, 0xcb, 0x4f, 0xde, 0x18, 0xdd, 0x15, 0x15, 0x1b, 0x30, 0xdc, 0x0d, ,
  0xef, 0xfb, 0xd4, 0xec, 0x06, 0x30, 0xf3, 0x7f, 0x1f, 0xd5, 0xfe, 0x60, ,
  0x07, 0xea, 0x28, 0xb4, 0xa3, 0xf3, 0xc9, 0x20, 0xd0, 0x01, 0xf6, 0x52, ,
  0x45, 0x25, 0xe8, 0xff, 0xef, 0xfb, 0x35, 0x04, 0x2c, 0x27, 0x01, 0x3c, ,
  0x12, 0x14, 0x09, 0x14, 0xeb, 0xec, 0xd5, 0xfb, 0x13, 0x36, 0x15, 0x03, ,
  0xee, 0xdd, 0xf8, 0x03, 0x0e, 0x0a, 0x3e, 0xeb, 0xcf, 0xd7, 0xee, 0x33, ,
  0x2b, 0x3f, 0xdd, 0x03, 0xc9, 0xf4, 0xe2, 0xcd, 0xbd, 0x0a, 0xf7, 0x55, ,
  0x1c, 0x3b, 0xfd, 0x20, 0xc3, 0x81, 0x20, 0xfe, 0x45, 0xbc, 0x11, 0xda, ,
  0xff, 0x26, 0xf0, 0x13, 0x07, 0x09, 0xbb, 0x44, 0xe4, 0xc4, 0xdd, 0xe2, ,
  0xfd, 0x1a, 0xb3, 0xe6, 0xd3, 0xd3, 0x19, 0x17, 0x31, 0xc6, 0xca, 0x23, ,
  0xe9, 0x04, 0x28, 0x1d, 0x0e, 0xec, 0xd7, 0xce, 0xe1, 0x01, 0x14, 0x13, ,
  0xf8, 0x02, 0x1f, 0x1f, 0xfc, 0x39, 0xe0, 0x18, 0xc9, 0xf4, 0xb2, 0x14, ,
  0x01, 0x11, 0x36, 0xec, 0x07, 0xff, 0x14, 0x81, 0xb0, 0xd8, 0xfa, 0x8b, ,
  0x16, 0xcd, 0x01, 0xd6, 0xed, 0x50, 0xf2, 0x4d, 0x2b, 0x25, 0x1d, 0xc4, ,
  0x02, 0xd9, 0x3c, 0x90, 0x3b, 0xea, 0x0b, 0xf4, 0xf0, 0xea, 0x27, 0x1e, ,
  0x3c, 0x02, 0x09, 0xf1, 0x00, 0x3e, 0xe5, 0xff, 0x0f, 0xf5, 0x09, 0xe3, ,
  0x03, 0xf3, 0x19, 0x02, 0xf6, 0xea, 0xfc, 0xdb, 0x0f, 0x00, 0xef, 0xeb, ,
  0x0c, 0xdd, 0x03, 0xc7, 0xea, 0xdc, 0x10, 0xf3, 0xe5, 0xc2, 0x05, 0xf9, ,
  0x01, 0x00, 0xf3, 0xf7, 0x1a, 0xea, 0xc8, 0x52, 0x81, 0x06, 0xfe, 0xbd, ,
  0x10, 0x28, 0x75, 0xb5, 0xb2, 0xd7, 0xd4, 0x5d, 0xf3, 0x30, 0x09, 0x0c, ,
  0xf9, 0xfa, 0xff, 0xe8, 0x15, 0xf4, 0x1a, 0x25, 0x25, 0x1c, 0x0b, 0x04, ,
  0x04, 0x0f, 0x11, 0x02, 0xec, 0xde, 0xf2, 0x10, 0x14, 0x21, 0xfa, 0xc5, ,
  0xd3, 0xef, 0x07, 0x07, 0x0a, 0xf3, 0xfd, 0xe7, 0xfc, 0x0d, 0x1f, 0x0b, ,
  0xfc, 0xe6, 0x04, 0xec, 0x25, 0xd4, 0xfa, 0x5d, 0x26, 0xfc, 0x04, 0x22, ,
  0x26, 0xa2, 0xc5, 0x6f, 0xf2, 0x0a, 0x4c, 0xac, 0xb4, 0xf8, 0x51, 0x81, ,
  0xb6, 0xa5, 0xc6, 0x01, 0x52, 0x25, 0xbb, 0x14, 0x04, 0xe8, 0xe7, 0xe9, ,
  0xea, 0x44, 0xdd, 0xf0, 0x11, 0x19, 0xea, 0x20, 0x1e, 0xd8, 0xee, 0x30, ,
  0xea, 0xf4, 0xd9, 0xec, 0xf0, 0x05, 0xec, 0xfd, 0x04, 0x0f, 0x23, 0x2b, ,
  0xfa, 0xf1, 0x28, 0x16, 0x18, 0x06, 0xed, 0x0d, 0x0b, 0x19, 0xd9, 0xe7, ,
  0xfd, 0xd4, 0xe7, 0x50, 0x12, 0x03, 0x07, 0x02, 0xb3, 0x05, 0x28, 0xe4, ,
  0x19, 0x17, 0xda, 0xd6, 0xfb, 0x33, 0x9c, 0x7f, 0x3d, 0x1a, 0x40, 0x90, ,
  0x1b, 0xd5, 0x3e, 0x8d, 0xf2, 0x07, 0xf7, 0x1b, 0xda, 0x0f, 0x0f, 0xe8, ,
  0x0e, 0x10, 0xde, 0xeb, 0xef, 0xfe, 0xf5, 0x05, 0xfb, 0x08, 0x05, 0xfe, ,
  0xfc, 0xd4, 0xc8, 0xe4, 0xf9, 0x09, 0x24, 0xd6, 0xfa, 0x0d, 0x2e, 0x1a, ,
  0x05, 0xd3, 0xe7, 0xf8, 0x3a, 0x1e, 0x1f, 0xe6, 0xf9, 0x47, 0x25, 0x2d, ,
  0x09, 0xfe, 0x11, 0x65, 0x13, 0x0a, 0xdb, 0xbd, 0xf3, 0x8e, 0x43, 0x8d, ,
  0xed, 0xa9, 0x3e, 0xd8, 0xda, 0x7f, 0x09, 0x79, 0x90, 0xe3, 0x9a, 0x19, ,
  0x17, 0xac, 0xd8, 0xc9, 0xd4, 0xee, 0xfe, 0x27, 0x6b, 0xf2, 0xe1, 0x22, ,
  0x0d, 0x15, 0xf5, 0x1c, 0x05, 0xe3, 0xee, 0xe3, 0x2b, 0x26, 0x5f, 0x0d, ,
  0xee, 0xcc, 0xe0, 0x0d, 0x00, 0xe9, 0xf1, 0xe3, 0xea, 0xe3, 0xe5, 0x01, ,
  0xff, 0x07, 0x0a, 0x17, 0xcb, 0x1e, 0x05, 0xee, 0x07, 0x07, 0xec, 0x35, ,
  0x4d, 0xeb, 0xbb, 0xec, 0x3f, 0xdc, 0x10, 0xca, 0x29, 0xb5, 0x7f, 0xb7, ,
  0xbd, 0x2f, 0xba, 0x6a, 0x12, 0x13, 0xd2, 0x19, 0xfe, 0x01, 0x0c, 0xfc, ,
  0x18, 0x06, 0x44, 0x14, 0x0f, 0x46, 0x16, 0xfd, 0x22, 0x30, 0xce, 0x31, ,
  0xcc, 0x09, 0x2a, 0xe1, 0x53, 0xa3, 0x14, 0xbd, 0xc7, 0x1f, 0xc1, 0x2c, ,
  0x0c, 0x13, 0xe2, 0xec, 0xd4, 0xf1, 0xff, 0x07, 0x03, 0x16, 0xee, 0x1c, ,
  0x16, 0xbe, 0xe0, 0xda, 0xdb, 0x08, 0x0b, 0x93, 0xb6, 0xf2, 0x34, 0xcc, ,
  0x88, 0x34, 0xfe, 0x1e, 0xc3, 0x03, 0x96, 0x63, 0x74, 0x2a, 0x7f, 0x8e, ,
  0x3a, 0xbf, 0x57, 0xa8, 0xe5, 0x01, 0x23, 0xf5, 0x12, 0xbe, 0xff, 0xc8, ,
  0xb0, 0xe2, 0xf0, 0xee, 0xf6, 0xd2, 0xe3, 0x07, 0xd4, 0x32, 0xdf, 0x1f, ,
  0xb7, 0xba, 0xad, 0xcc, 0xef, 0x13, 0x0e, 0x01, 0x0a, 0xe1, 0xe4, 0xc6, ,
  0xe1, 0xf6, 0x1e, 0xdf, 0xf1, 0xc5, 0x1c, 0x08, 0x22, 0x10, 0x18, 0xe8, ,
  0xef, 0x03, 0xf1, 0x3a, 0x56, 0x03, 0xb3, 0x1d, 0xe0, 0x43, 0xfb, 0x24, ,
  0xff, 0xd9, 0x47, 0xae, 0xb6, 0x06, 0xb4, 0x7f, 0xcc, 0x08, 0xbf, 0x43, ,
  0xfa, 0x0a, 0xe3, 0xe3, 0x0a, 0x0d, 0x12, 0x39, 0x37, 0x01, 0x38, 0x1b, ,
  0x12, 0x14, 0x17, 0xd9, 0xf7, 0x17, 0x3f, 0x39, 0x32, 0xe4, 0xe1, 0xb0, ,
  0xd4, 0xf9, 0xf4, 0x0b, 0x01, 0xe6, 0x20, 0x13, 0x26, 0x1d, 0xe6, 0xc9, ,
  0xae, 0xdb, 0xef, 0x2d, 0x37, 0x04, 0x00, 0x29, 0x0b, 0xfe, 0x2c, 0xb8, ,
  0x8d, 0xd0, 0x2b, 0xc3, 0x52, 0xd1, 0xf5, 0x2f, 0xe7, 0xfe, 0xcf, 0x7f, ,
  0x15, 0x32, 0x33, 0x95, 0x17, 0xcc, 0x4b, 0x9d, 0xf8, 0x39, 0x3d, 0x33, ,
  0xe9, 0x19, 0x14, 0xea, 0x11, 0x00, 0xe2, 0xfd, 0xef, 0x0e, 0x21, 0xe5, ,
  0xd8, 0x01, 0xe6, 0x04, 0x23, 0x34, 0x5d, 0x2d, 0xf7, 0xdd, 0xb4, 0xfe, ,
  0xf1, 0x2d, 0x0f, 0x29, 0xef, 0xcf, 0xe3, 0xe3, 0x1b, 0x0a, 0x2d, 0xfa, ,
  0x14, 0x5a, 0x24, 0x00, 0xf2, 0x05, 0x17, 0x3f, 0x62, 0x2c, 0xe5, 0x70, ,
  0x38, 0xc6, 0x2b, 0xdf, 0x17, 0xdb, 0x4d, 0x82, 0xda, 0xe5, 0xa5, 0x38, ,
  0xe7, 0x4d, 0xcb, 0x7f, 0x14, 0x15, 0xfb, 0xf3, 0xe4, 0x47, 0xdd, 0x2c, ,
  0x25, 0x15, 0x37, 0x0b, 0x27, 0x17, 0x07, 0x08, 0xf2, 0xbd, 0xde, 0xea, ,
  0x3b, 0x49, 0x61, 0x16, 0xee, 0xc6, 0xdd, 0xf8, 0xe7, 0x05, 0x1e, 0x51, ,
  0x33, 0x27, 0xdb, 0xfa, 0xd9, 0xef, 0xe3, 0x09, 0xf6, 0x5e, 0x09, 0x0b, ,
  0xde, 0xfb, 0x0b, 0x6d, 0xe0, 0xe5, 0xbf, 0x70, 0x6a, 0x14, 0x11, 0xd7, ,
  0xf4, 0xe6, 0x7f, 0xaa, 0xd8, 0x09, 0xce, 0x59, 0xcc, 0x4a, 0xe8, 0x4a, ,
  0x50, 0x1c, 0x03, 0xde, 0x05, 0xe4, 0x1c, 0x2f, 0x37, 0x24, 0x10, 0x07, ,
  0x12, 0x29, 0xff, 0xf9, 0x24, 0x1b, 0x1c, 0x05, 0xdf, 0xbc, 0x9f, 0xc8, ,
  0x08, 0x28, 0x3c, 0xe8, 0x0e, 0xeb, 0xdd, 0xd5, 0xe5, 0x15, 0x18, 0x25, ,
  0xef, 0xff, 0xf9, 0xf3, 0x00, 0xf1, 0x05, 0xd3, 0xef, 0xf1, 0xec, 0xf6, ,
  0x31, 0xfe, 0xfe, 0x43, 0x81, 0xf5, 0x11, 0x99, 0xcf, 0xfa, 0x58, 0x90, ,
  0xaa, 0x0b, 0xf9, 0x5b, 0xe6, 0x00, 0x00, 0x1f, 0x2b, 0xfc, 0x0a, 0xf6, ,
  0xe7, 0x06, 0x11, 0x1f, 0x43, 0x20, 0x06, 0x02, 0x1c, 0x35, 0xf7, 0x1f, ,
  0xf9, 0x07, 0xf6, 0xeb, 0x05, 0x01, 0x14, 0xf6, 0x11, 0x15, 0x09, 0xff, ,
  0xf8, 0x00, 0x2a, 0x10, 0x15, 0xe5, 0x00, 0xfc, 0xff, 0x0a, 0xff, 0xe7, ,
  0xe6, 0xe5, 0xff, 0xff, 0x04, 0x00, 0x00, 0x00, 0xc0, 0x00, 0x00, 0x00, ,
  0x4c, 0x0b, 0x00, 0x00, 0xfa, 0x04, 0x00, 0x00, 0x0b, 0x0b, 0x00, 0x00, ,
  0x74, 0x03, 0x00, 0x00, 0xad, 0x09, 0x00, 0x00, 0xf9, 0x1d, 0x00, 0x00, ,
  0xa5, 0x0b, 0x00, 0x00, 0xab, 0x04, 0x00, 0x00, 0xaa, 0x0a, 0x00, 0x00, ,
  0x16, 0x00, 0x00, 0x00, 0xc7, 0x0d, 0x00, 0x00, 0xe2, 0x12, 0x00, 0x00, ,
  0x09, 0x11, 0x00, 0x00, 0xb4, 0x23, 0x00, 0x00, 0x02, 0x3b, 0x00, 0x00, ,
  0x7d, 0x0c, 0x00, 0x00, 0x74, 0xfd, 0xff, 0xff, 0x7e, 0x0d, 0x00, 0x00, ,
  0x3d, 0x18, 0x00, 0x00, 0x50, 0x22, 0x00, 0x00, 0xc0, 0xfa, 0xff, 0xff, ,
  0x4e, 0x02, 0x00, 0x00, 0x5c, 0x11, 0x00, 0x00, 0x34, 0x01, 0x00, 0x00, ,
  0x9f, 0x04, 0x00, 0x00, 0x5f, 0x05, 0x00, 0x00, 0x1d, 0xfc, 0xff, 0xff, ,
  0xf1, 0xfe, 0xff, 0xff, 0xfd, 0xf9, 0xff, 0xff, 0x62, 0x1f, 0x00, 0x00, ,
  0x66, 0x0f, 0x00, 0x00, 0x76, 0x14, 0x00, 0x00, 0x75, 0x12, 0x00, 0x00, ,
  0xa8, 0x29, 0x00, 0x00, 0x1e, 0x11, 0x00, 0x00, 0x5c, 0x12, 0x00, 0x00, ,
  0x2e, 0x0d, 0x00, 0x00, 0x55, 0x00, 0x00, 0x00, 0x6e, 0x09, 0x00, 0x00, ,
  0x26, 0x01, 0x00, 0x00, 0x77, 0x09, 0x00, 0x00, 0xfb, 0x09, 0x00, 0x00, ,
  0x14, 0x07, 0x00, 0x00, 0xac, 0x0e, 0x00, 0x00, 0x32, 0x05, 0x00, 0x00, ,
  0xfa, 0x05, 0x00, 0x00, 0x29, 0x11, 0x00, 0x00, 0xc1, 0xfb, 0xff, 0xff, ,
  0xb2, 0xe6, 0xff, 0xff, 0x04, 0x00, 0x00, 0x00, 0x80, 0x04, 0x00, 0x00, ,
  0xf9, 0xe5, 0x2d, 0xfd, 0x1d, 0xfc, 0x2c, 0x0e, 0x1e, 0x29, 0x36, 0xf8, ,
  0xea, 0xea, 0x24, 0xf8, 0xc8, 0xcf, 0x07, 0xe2, 0x22, 0x1f, 0x88, 0xbd, ,
  0xfd, 0xcc, 0xf3, 0x36, 0x1c, 0xc2, 0xf5, 0x34, 0x81, 0x42, 0x0c, 0x29, ,
  0xfb, 0x40, 0x0d, 0xfb, 0x23, 0xe3, 0xd2, 0xd9, 0x03, 0x10, 0xac, 0xef, ,
  0x38, 0x2b, 0x01, 0x41, 0x34, 0xe6, 0xf3, 0x30, 0x1f, 0xc3, 0xa0, 0x08, ,
  0xf6, 0x0e, 0x30, 0x19, 0xe7, 0xce, 0xee, 0xbe, 0x11, 0x7f, 0xe7, 0x09, ,
  0x1a, 0xc5, 0xea, 0xde, 0xfe, 0x44, 0xf0, 0x03, 0xdf, 0x41, 0xaf, 0xf8, ,
  0xe8, 0x57, 0xed, 0x32, 0x3f, 0xe7, 0x02, 0x29, 0x20, 0x5d, 0xf6, 0xb0, ,
  0x00, 0xf9, 0x0b, 0xad, 0x00, 0x0c, 0xcb, 0xf0, 0x28, 0x4d, 0xa3, 0x7f, ,
  0xfe, 0x12, 0x03, 0xec, 0xf8, 0x1f, 0xc0, 0xe9, 0xa0, 0x26, 0x92, 0x24, ,
  0xfd, 0xdb, 0x05, 0xfa, 0xc2, 0x1f, 0x1e, 0xe7, 0x06, 0x01, 0x19, 0x00, ,
  0x29, 0x09, 0x0f, 0xa9, 0xff, 0xe6, 0x09, 0xf5, 0xf3, 0x02, 0xe3, 0xf3, ,
  0xf5, 0x03, 0x09, 0x0a, 0x13, 0xb3, 0xfa, 0xa2, 0xf4, 0xfb, 0xe7, 0x1e, ,
  0x04, 0xf8, 0x15, 0x4a, 0x1b, 0xf3, 0x19, 0xe0, 0x7a, 0xee, 0x81, 0x10, ,
  0xfe, 0xc5, 0xf6, 0xe0, 0xf1, 0x16, 0xf6, 0xf4, 0xf8, 0xf6, 0x17, 0x08, ,
  0x1d, 0x1c, 0xfc, 0x1a, 0xe6, 0xfe, 0x06, 0xee, 0x05, 0x17, 0x34, 0x10, ,
  0xdc, 0x27, 0xea, 0x04, 0x5f, 0xf0, 0xf6, 0x31, 0xb2, 0xfb, 0xba, 0x78, ,
  0xdc, 0xeb, 0x05, 0x25, 0xc5, 0x09, 0x27, 0x17, 0x82, 0xb9, 0x21, 0x81, ,
  0x1e, 0xda, 0x05, 0x5d, 0xc0, 0xc8, 0x63, 0x33, 0x0c, 0x32, 0x2e, 0x14, ,
  0x78, 0xf4, 0xef, 0xc9, 0x4f, 0x33, 0xec, 0xf9, 0xd9, 0xdc, 0x51, 0xbd, ,
  0x18, 0xf3, 0xe9, 0x1c, 0xd1, 0x06, 0xe0, 0x36, 0xec, 0xca, 0xd0, 0x2b, ,
  0xf8, 0xc2, 0x03, 0x0f, 0xfc, 0x02, 0xdc, 0x13, 0x81, 0xe4, 0xf4, 0x0b, ,
  0xff, 0xea, 0xe7, 0xf6, 0xed, 0x00, 0x0c, 0x17, 0x09, 0xf3, 0x1a, 0xff, ,
  0xd8, 0xc4, 0x12, 0xee, 0xe9, 0x04, 0xf1, 0x17, 0x06, 0x20, 0x21, 0xd9, ,
  0x2c, 0xfe, 0x25, 0xbe, 0xed, 0x15, 0x28, 0x1a, 0xee, 0xb1, 0x81, 0xa7, ,
  0xef, 0xa0, 0xc4, 0x09, 0x31, 0xeb, 0x26, 0xec, 0x22, 0x21, 0xb7, 0x05, ,
  0xaf, 0x44, 0xaf, 0x32, 0x15, 0x23, 0x06, 0x0d, 0x9a, 0x07, 0xf9, 0x10, ,
  0xb1, 0x52, 0xd9, 0x1c, 0xff, 0x12, 0xdc, 0xe6, 0x04, 0xc7, 0x11, 0xbc, ,
  0x7f, 0xfe, 0x0a, 0x08, 0x0c, 0x15, 0x2c, 0xf0, 0x27, 0xc9, 0xbd, 0xd5, ,
  0xef, 0x47, 0xde, 0xeb, 0x01, 0x01, 0xfc, 0xe2, 0x4f, 0x45, 0x11, 0x0c, ,
  0x3d, 0x06, 0xe2, 0x23, 0x85, 0x18, 0x01, 0x08, 0xaf, 0xe8, 0x19, 0x0a, ,
  0x18, 0x46, 0x08, 0x44, 0x40, 0x40, 0xf8, 0xbf, 0x1b, 0x2e, 0x17, 0x97, ,
  0x10, 0xf6, 0xe6, 0x66, 0xcb, 0xdd, 0xfa, 0xc8, 0x53, 0xa2, 0x3b, 0x01, ,
  0xff, 0x45, 0x46, 0xf9, 0xd7, 0x0d, 0xcc, 0xcb, 0x4d, 0x39, 0x28, 0xbe, ,
  0xfe, 0x43, 0xd3, 0x31, 0x81, 0x2e, 0xce, 0x18, 0xd8, 0x78, 0xfc, 0x02, ,
  0x26, 0xf4, 0x11, 0x21, 0x0d, 0xe0, 0x51, 0xaa, 0x88, 0xb2, 0x60, 0xd7, ,
  0x08, 0xfe, 0x3c, 0x0a, 0x02, 0xef, 0xee, 0xd5, 0xf2, 0x81, 0x88, 0xd1, ,
  0x0b, 0x2f, 0x0d, 0x28, 0xeb, 0xe0, 0xe3, 0xf2, 0x7a, 0xdb, 0x31, 0x34, ,
  0x1f, 0x09, 0xdd, 0x20, 0xee, 0xe3, 0xd4, 0x16, 0xf7, 0xed, 0xe9, 0x3a, ,
  0x42, 0xde, 0xed, 0x29, 0xff, 0xfe, 0xe7, 0x2c, 0x28, 0x00, 0x0f, 0x18, ,
  0x0f, 0x17, 0x7f, 0x13, 0x27, 0x06, 0xce, 0xf3, 0x05, 0xd6, 0x0a, 0x3e, ,
  0xfd, 0xea, 0xed, 0xfb, 0xc6, 0x21, 0x13, 0xfd, 0x25, 0xfc, 0xdc, 0x05, ,
  0x27, 0xf0, 0x12, 0xef, 0xfb, 0xc9, 0x2b, 0x08, 0x07, 0x27, 0xee, 0x0a, ,
  0x1c, 0x0b, 0x06, 0x08, 0xe7, 0xe5, 0x36, 0xe0, 0xc2, 0xcf, 0x16, 0x0d, ,
  0x02, 0xf0, 0x33, 0xdc, 0xe0, 0x18, 0x69, 0x2a, 0x5c, 0x22, 0xfa, 0x15, ,
  0x10, 0xdf, 0x0f, 0xe3, 0xff, 0x0b, 0x1a, 0x0b, 0xfa, 0xec, 0xcc, 0x41, ,
  0xf3, 0x07, 0xff, 0xe6, 0xd5, 0xdf, 0x3b, 0xe4, 0xe6, 0xde, 0xec, 0x06, ,
  0x7f, 0x08, 0xff, 0xca, 0x17, 0x41, 0x23, 0xff, 0xd0, 0xf0, 0x1c, 0x28, ,
  0x03, 0x01, 0x01, 0xf5, 0xef, 0xf5, 0xf5, 0xef, 0x05, 0x08, 0xf3, 0xf3, ,
  0x01, 0xf9, 0xfa, 0x0b, 0xfc, 0x02, 0xf6, 0x02, 0x08, 0x01, 0xc6, 0xff, ,
  0x10, 0x07, 0xfc, 0x81, 0x06, 0xfa, 0xff, 0x05, 0x05, 0x01, 0xff, 0xff, ,
  0xed, 0xfa, 0xf8, 0x0d, 0x03, 0xfe, 0xf7, 0x08, 0x07, 0xfe, 0x01, 0xfe, ,
  0x3b, 0x09, 0x28, 0x1a, 0x2a, 0x26, 0xe6, 0xfd, 0xda, 0xfb, 0xfe, 0xde, ,
  0x0f, 0x1c, 0x7f, 0x37, 0x10, 0xe5, 0x0e, 0x31, 0x22, 0xee, 0x09, 0xf7, ,
  0xe0, 0x12, 0xe6, 0x35, 0xe5, 0x43, 0x1a, 0xed, 0xe7, 0x03, 0x09, 0xd6, ,
  0xc6, 0xcd, 0x0b, 0xfb, 0x16, 0xcd, 0x09, 0xdc, 0xf0, 0x12, 0xd1, 0xfa, ,
  0x07, 0x4f, 0x05, 0xdb, 0x25, 0xff, 0xed, 0x06, 0x45, 0xba, 0x54, 0x32, ,
  0x46, 0x18, 0x2e, 0xd7, 0x47, 0xe3, 0x56, 0xd5, 0xc2, 0x07, 0xd4, 0xd4, ,
  0x32, 0xf0, 0x7f, 0xf1, 0xeb, 0xca, 0x2e, 0x0f, 0xed, 0xf0, 0x1c, 0xe7, ,
  0xff, 0xc7, 0x09, 0xdf, 0xf6, 0x08, 0xc3, 0xf7, 0x1a, 0xfe, 0x0f, 0x14, ,
  0xcf, 0x1a, 0x2f, 0xff, 0x39, 0x4f, 0x4e, 0x15, 0xb9, 0x4d, 0x26, 0xbd, ,
  0x18, 0x34, 0x21, 0xc0, 0xcd, 0xb8, 0xc2, 0xe1, 0xea, 0x0e, 0xe3, 0xfa, ,
  0x27, 0x01, 0x60, 0xf9, 0xce, 0x05, 0x54, 0xfe, 0xfc, 0xf6, 0x26, 0xd5, ,
  0x71, 0x8b, 0x27, 0x5b, 0xfa, 0x0d, 0x7f, 0xef, 0xf3, 0xea, 0xf4, 0xf5, ,
  0xf0, 0x08, 0x02, 0xe9, 0xdd, 0x16, 0xcd, 0xfd, 0x13, 0xfc, 0x04, 0xef, ,
  0xfc, 0xf8, 0x11, 0x81, 0x1a, 0x05, 0xcf, 0xf7, 0xe3, 0x18, 0xfd, 0xfb, ,
  0x05, 0xfe, 0xf6, 0xf8, 0xf8, 0x0b, 0x2c, 0x05, 0xf1, 0xe9, 0x0e, 0xfb, ,
  0x0a, 0xed, 0x10, 0x45, 0xf3, 0xf1, 0xe2, 0x08, 0x05, 0x18, 0x0e, 0xb2, ,
  0xfb, 0xf9, 0x12, 0x02, 0xeb, 0x26, 0xf8, 0x04, 0x0f, 0x21, 0x05, 0x04, ,
  0x12, 0xfc, 0xf5, 0xb5, 0xf7, 0x26, 0xe9, 0xfe, 0x81, 0xf6, 0x54, 0xec, ,
  0xdc, 0x0d, 0xed, 0x0c, 0xf9, 0x09, 0xe1, 0x21, 0xc9, 0xf6, 0x29, 0xf9, ,
  0x2f, 0xcb, 0x17, 0x14, 0x0a, 0xef, 0xea, 0x02, 0x0c, 0x2b, 0x15, 0xab, ,
  0xca, 0xeb, 0x55, 0x15, 0x7f, 0xd7, 0xcf, 0x12, 0xfd, 0x4f, 0x39, 0x53, ,
  0x14, 0xfd, 0x40, 0x3e, 0xe4, 0x58, 0xce, 0xee, 0x42, 0x14, 0x2c, 0x29, ,
  0xf7, 0xf5, 0x17, 0xeb, 0xff, 0xe7, 0xfa, 0xee, 0xf3, 0xc6, 0xfd, 0xfe, ,
  0xde, 0xdd, 0x05, 0xca, 0xea, 0x09, 0xd5, 0xee, 0x3f, 0x0f, 0xcf, 0x20, ,
  0xe7, 0x15, 0x03, 0x45, 0xe9, 0xda, 0xf6, 0x2f, 0xf4, 0xc2, 0xd8, 0xbb, ,
  0xfb, 0x54, 0xb0, 0x41, 0xe3, 0xe3, 0xbc, 0x42, 0xf6, 0x06, 0x1b, 0x04, ,
  0x0e, 0x2f, 0x14, 0x1e, 0x7f, 0xfb, 0xc9, 0x26, 0xd7, 0x0c, 0x2c, 0xb1, ,
  0xba, 0x44, 0x23, 0x1a, 0x0c, 0x16, 0x19, 0xca, 0x25, 0xde, 0x4d, 0xe4, ,
  0xfc, 0xee, 0x35, 0xd5, 0x7f, 0x14, 0xab, 0x26, 0xe2, 0xf4, 0x0c, 0xa0, ,
  0x03, 0xf7, 0x10, 0xd9, 0x0c, 0xf9, 0xe8, 0x09, 0xb3, 0x1b, 0xce, 0x14, ,
  0xdd, 0xd9, 0x14, 0x0e, 0xc8, 0xf0, 0xf4, 0xe4, 0x15, 0xee, 0x03, 0xfd, ,
  0xfc, 0xfd, 0x0a, 0x31, 0x16, 0x19, 0x43, 0xf1, 0xf9, 0xf7, 0xfd, 0xef, ,
  0x19, 0xea, 0x04, 0xf1, 0x09, 0xe3, 0x22, 0xfd, 0xf9, 0x03, 0xbb, 0xd4, ,
  0xed, 0xce, 0x36, 0xf9, 0xdf, 0x11, 0xfc, 0x7f, 0x45, 0x17, 0x03, 0x05, ,
  0xe4, 0xf5, 0xc5, 0xf9, 0xef, 0x1b, 0xff, 0x07, 0x04, 0x26, 0xfb, 0xee, ,
  0xd8, 0x0b, 0xed, 0x07, 0x20, 0x19, 0x32, 0x22, 0x03, 0xe4, 0x05, 0xef, ,
  0xfe, 0x08, 0x0a, 0x0c, 0xf0, 0x12, 0xe2, 0x1e, 0xf0, 0xda, 0xb2, 0xb5, ,
  0x14, 0xfc, 0x1c, 0xca, 0x0f, 0x31, 0xfc, 0x18, 0x0e, 0x07, 0x81, 0xff, ,
  0xef, 0xe1, 0xf4, 0x0c, 0xfa, 0xe4, 0xfe, 0xf2, 0xd8, 0xfc, 0xec, 0x0b, ,
  0xa4, 0x4f, 0x08, 0x38, 0xfd, 0x00, 0x0e, 0xff, 0x10, 0x1e, 0x05, 0xe8, ,
  0xf8, 0xd6, 0xe1, 0xfc, 0x0a, 0xcb, 0x33, 0x47, 0x01, 0xdb, 0xcc, 0x97, ,
  0xf1, 0x5c, 0xf8, 0xcb, 0x2f, 0xda, 0x29, 0xeb, 0xc5, 0x53, 0x0b, 0xd5, ,
  0xd4, 0xdb, 0xd7, 0x4f, 0x14, 0x26, 0x04, 0x14, 0xc9, 0x13, 0xd6, 0x2f, ,
  0x81, 0x3b, 0x40, 0x16, 0xe3, 0xe9, 0x1f, 0x57, 0xd9, 0xc4, 0x72, 0xf7, ,
  0x3e, 0xeb, 0xff, 0xff, 0x04, 0x00, 0x00, 0x00, 0x60, 0x00, 0x00, 0x00, ,
  0xad, 0xcb, 0x00, 0x00, 0xcb, 0x10, 0x00, 0x00, 0x22, 0x3b, 0x00, 0x00, ,
  0x61, 0x3d, 0x00, 0x00, 0x10, 0x5b, 0x00, 0x00, 0x03, 0x08, 0x00, 0x00, ,
  0xef, 0x6d, 0x00, 0x00, 0xfb, 0x18, 0x00, 0x00, 0xc6, 0xb8, 0x00, 0x00, ,
  0x94, 0x09, 0x00, 0x00, 0x32, 0x45, 0x00, 0x00, 0x5f, 0xe5, 0xff, 0xff, ,
  0xe9, 0x0e, 0x00, 0x00, 0x82, 0x15, 0x00, 0x00, 0xc9, 0xe0, 0xff, 0xff, ,
  0xff, 0x0a, 0x00, 0x00, 0xa6, 0x0a, 0x00, 0x00, 0x7a, 0x04, 0x00, 0x00, ,
  0x22, 0xe2, 0xff, 0xff, 0x41, 0x1c, 0x00, 0x00, 0xdb, 0x3f, 0x00, 0x00, ,
  0x7f, 0x0d, 0x00, 0x00, 0x76, 0x2e, 0x00, 0x00, 0xee, 0x3d, 0x00, 0x00, ,
  0xaa, 0xeb, 0xff, 0xff, 0x04, 0x00, 0x00, 0x00, 0xc0, 0x00, 0x00, 0x00, ,
  0xf9, 0x0f, 0xfe, 0xe9, 0xea, 0x06, 0x0a, 0x04, 0xe7, 0xff, 0xe4, 0x07, ,
  0x7f, 0xfd, 0x09, 0x0a, 0x42, 0x13, 0xe8, 0xea, 0xf0, 0xf7, 0x10, 0x19, ,
  0x7f, 0x22, 0xfc, 0x04, 0xfc, 0xd6, 0xc4, 0xd0, 0xdc, 0xf6, 0x09, 0x15, ,
  0x3f, 0xfc, 0x0f, 0x39, 0x35, 0x11, 0xe0, 0xf5, 0xcf, 0x08, 0x36, 0x0d, ,
  0x04, 0x0f, 0xfa, 0x05, 0xfe, 0xf8, 0xfa, 0xf0, 0x21, 0x09, 0x06, 0x14, ,
  0x7f, 0x03, 0xef, 0x06, 0xf6, 0xfd, 0xf5, 0xee, 0xf1, 0x08, 0x0c, 0x10, ,
  0xfa, 0x35, 0x75, 0xcf, 0xfa, 0x7f, 0xbe, 0xdd, 0xf7, 0x4d, 0xd8, 0x36, ,
  0x84, 0x24, 0xbe, 0xe3, 0x58, 0x3e, 0x14, 0x94, 0xc5, 0x15, 0xb0, 0xd0, ,
  0xef, 0x31, 0x29, 0xfd, 0x21, 0x27, 0xb7, 0xd9, 0x1f, 0x3d, 0x2b, 0x5e, ,
  0x81, 0xe4, 0x51, 0xe8, 0x46, 0xdf, 0xad, 0xcd, 0xf7, 0xdb, 0xe1, 0x31, ,
  0xfe, 0x17, 0x02, 0xf7, 0x12, 0x13, 0x11, 0x00, 0xff, 0x08, 0xfb, 0xf9, ,
  0x81, 0xf8, 0xf5, 0x0b, 0x10, 0x0a, 0xf3, 0xf8, 0xed, 0x0c, 0x04, 0x0c, ,
  0x13, 0xfa, 0xfd, 0x38, 0x13, 0x06, 0x17, 0x14, 0xe4, 0x41, 0xd7, 0x2a, ,
  0x9f, 0xf7, 0xf8, 0x0d, 0x81, 0xc4, 0x07, 0xcb, 0xe0, 0x11, 0x25, 0x00, ,
  0xe7, 0xe4, 0x0f, 0x07, 0xf3, 0xff, 0xeb, 0xd3, 0xdc, 0x1c, 0xea, 0x1c, ,
  0x10, 0xf3, 0xc7, 0x24, 0x7f, 0xe9, 0xda, 0xee, 0x0e, 0x1e, 0x02, 0x26, ,
  0x76, 0xec, 0xff, 0xff, 0x04, 0x00, 0x00, 0x00, 0x20, 0x00, 0x00, 0x00, ,
  0x9a, 0x43, 0x00, 0x00, 0xf6, 0x1c, 0x00, 0x00, 0x70, 0x0c, 0x00, 0x00, ,
  0xfb, 0xaf, 0x00, 0x00, 0xce, 0x52, 0x00, 0x00, 0xc5, 0x1a, 0x00, 0x00, ,
  0xea, 0x3f, 0x00, 0x00, 0xeb, 0x73, 0x00, 0x00, 0xa2, 0xec, 0xff, 0xff, ,
  0x04, 0x00, 0x00, 0x00, 0xc0, 0x00, 0x00, 0x00, 0x86, 0x06, 0x81, 0x3a, ,
  0x27, 0x7a, 0x1d, 0x02, 0x13, 0xcc, 0xfb, 0x7f, 0xf6, 0xe2, 0x11, 0x42, ,
  0x09, 0xb8, 0x4b, 0x81, 0xea, 0x6e, 0x2b, 0x56, 0xc8, 0x6b, 0xc7, 0x21, ,
  0xe3, 0xfa, 0x81, 0x70, 0xc3, 0x0e, 0x1a, 0x14, 0x7f, 0xf6, 0xed, 0x15, ,
  0xb4, 0x7f, 0xa7, 0x5d, 0x5f, 0xa5, 0x84, 0x36, 0x44, 0x81, 0x31, 0xd3, ,
  0x1f, 0x29, 0x5b, 0xcb, 0xdf, 0xee, 0x38, 0x97, 0x11, 0xd1, 0x7f, 0xe7, ,
  0x9a, 0xf1, 0x56, 0x30, 0x81, 0x5a, 0x31, 0x7e, 0xc4, 0xc0, 0x31, 0x08, ,
  0x13, 0x81, 0x90, 0xd3, 0x13, 0xfc, 0xa2, 0x6c, 0x0e, 0x30, 0x81, 0x49, ,
  0xf7, 0xaa, 0xda, 0x71, 0x7f, 0x3c, 0xa4, 0x0d, 0xa9, 0x7f, 0x5f, 0xde, ,
  0xdc, 0x56, 0xbe, 0xac, 0x3c, 0x23, 0x28, 0xb7, 0x81, 0x1b, 0x2c, 0xbc, ,
  0x7f, 0xa9, 0x7c, 0xbe, 0xc9, 0x20, 0xd8, 0xf3, 0xf5, 0xec, 0xee, 0x84, ,
  0xb7, 0x06, 0x81, 0x18, 0x7f, 0xf1, 0x7e, 0xcf, 0x94, 0x9c, 0xdb, 0x17, ,
  0x6c, 0x49, 0x7f, 0x18, 0xbc, 0x52, 0x1c, 0x3c, 0x64, 0x3c, 0x81, 0xe8, ,
  0x7e, 0xee, 0x24, 0x27, 0x55, 0xd9, 0x98, 0xe6, 0x46, 0x7c, 0xc0, 0x81, ,
  0xb7, 0x61, 0xb3, 0xed, 0xfd, 0x7f, 0xe4, 0xce, 0xc2, 0x40, 0x42, 0x04, ,
  0xf6, 0x81, 0x62, 0x36, 0xb5, 0xdd, 0x44, 0xec, 0xc3, 0xcd, 0x7f, 0xf2, ,
  0xf2, 0xec, 0xed, 0xd0, 0x18, 0x04, 0xe6, 0x7f, 0x6e, 0xed, 0xff, 0xff, ,
  0x04, 0x00, 0x00, 0x00, 0x60, 0x00, 0x00, 0x00, 0x76, 0x04, 0x00, 0x00, ,
  0x38, 0x08, 0x00, 0x00, 0x2d, 0x1e, 0x00, 0x00, 0x92, 0x03, 0x00, 0x00, ,
  0x64, 0x0e, 0x00, 0x00, 0x29, 0xfc, 0xff, 0xff, 0xf5, 0xfd, 0xff, 0xff, ,
  0x38, 0x01, 0x00, 0x00, 0x31, 0x18, 0x00, 0x00, 0x07, 0xfc, 0xff, 0xff, ,
  0xa9, 0x03, 0x00, 0x00, 0x31, 0x02, 0x00, 0x00, 0x25, 0x09, 0x00, 0x00, ,
  0x9c, 0x02, 0x00, 0x00, 0x60, 0x06, 0x00, 0x00, 0x54, 0xfd, 0xff, 0xff, ,
  0x6f, 0x00, 0x00, 0x00, 0x7d, 0x02, 0x00, 0x00, 0x18, 0x16, 0x00, 0x00, ,
  0x24, 0xfb, 0xff, 0xff, 0x47, 0x03, 0x00, 0x00, 0x57, 0x08, 0x00, 0x00, ,
  0x90, 0xfe, 0xff, 0xff, 0xb9, 0x1c, 0x00, 0x00, 0xda, 0xed, 0xff, 0xff, ,
  0x04, 0x00, 0x00, 0x00, 0x80, 0x04, 0x00, 0x00, 0xe6, 0xeb, 0x13, 0xea, ,
  0xd9, 0x01, 0xf0, 0xfb, 0xee, 0x81, 0x0c, 0xef, 0x03, 0xff, 0x0f, 0x97, ,
  0xf3, 0x08, 0xe6, 0x1c, 0x03, 0xfb, 0xfd, 0x11, 0xff, 0xfc, 0xf4, 0x0a, ,
  0x01, 0x07, 0xfe, 0xe0, 0xfd, 0x7f, 0xfc, 0xfc, 0x08, 0xf5, 0x05, 0x21, ,
  0x00, 0xfc, 0xf9, 0x07, 0x04, 0x02, 0x00, 0x07, 0xf2, 0xf9, 0x0e, 0x08, ,
  0xfb, 0x04, 0xfe, 0x13, 0x00, 0x7f, 0x03, 0xf9, 0xf7, 0x1b, 0x06, 0x68, ,
  0xfe, 0x01, 0xfd, 0xf3, 0x0a, 0x00, 0x16, 0x0b, 0xf7, 0x06, 0x01, 0xf6, ,
  0x13, 0x04, 0xef, 0xf4, 0x02, 0x7f, 0xf1, 0x02, 0xf3, 0xe8, 0xf6, 0x3a, ,
  0xef, 0xfe, 0xf1, 0xfd, 0xfe, 0xff, 0xe0, 0x01, 0xfd, 0xef, 0x02, 0xf5, ,
  0x05, 0x00, 0xfd, 0x05, 0xfd, 0x81, 0xf5, 0x04, 0xfb, 0x01, 0xfb, 0xd1, ,
  0x11, 0x02, 0x0e, 0x09, 0x01, 0xfe, 0x08, 0xfa, 0xee, 0x36, 0xfd, 0xe1, ,
  0xd5, 0xf9, 0x14, 0xf8, 0xea, 0x7f, 0x03, 0x09, 0x0e, 0xfa, 0x0a, 0xf1, ,
  0xdb, 0xe6, 0x2e, 0x02, 0xe4, 0x15, 0x17, 0x3d, 0xea, 0xf0, 0x05, 0xf1, ,
  0xfc, 0x10, 0xee, 0x2c, 0xeb, 0x81, 0x16, 0x00, 0xfe, 0xf0, 0x00, 0xc1, ,
  0xe0, 0x02, 0xfe, 0xde, 0xf3, 0x13, 0x06, 0x0a, 0xfd, 0xf8, 0x08, 0x05, ,
  0x00, 0x0a, 0x06, 0x09, 0xfd, 0x7f, 0x13, 0x0c, 0x08, 0x15, 0x03, 0x35, ,
  0x04, 0x06, 0x0a, 0xfb, 0xfc, 0xff, 0xff, 0xfb, 0x0d, 0x04, 0xfe, 0x04, ,
  0x02, 0xf9, 0x04, 0x07, 0x02, 0x7f, 0xfb, 0xfd, 0x08, 0x17, 0xfd, 0x6e, ,
  0x07, 0xf8, 0x03, 0xfc, 0xfa, 0x08, 0x06, 0xfc, 0xb6, 0x05, 0xf3, 0xfb, ,
  0x09, 0x01, 0x07, 0xd7, 0xf8, 0x2f, 0xee, 0x0c, 0x06, 0xc2, 0xe9, 0x7f, ,
  0xec, 0x03, 0x0b, 0x03, 0x08, 0xfe, 0x0f, 0xfc, 0x02, 0x03, 0x03, 0x03, ,
  0xfb, 0xfd, 0x01, 0x06, 0xff, 0xdc, 0xfc, 0x03, 0x02, 0x08, 0xfb, 0x81, ,
  0xff, 0xff, 0x03, 0xfc, 0x01, 0xff, 0xfc, 0xfc, 0xfe, 0xff, 0x04, 0xfa, ,
  0xfe, 0x01, 0x01, 0x00, 0x02, 0x81, 0xfd, 0xfd, 0x03, 0xfb, 0xfe, 0x15, ,
  0xf8, 0xff, 0x01, 0x07, 0x01, 0xfa, 0xf4, 0x02, 0x18, 0xf7, 0x09, 0x05, ,
  0x02, 0x0e, 0x0f, 0xf3, 0x0f, 0x7f, 0xda, 0xe9, 0x02, 0x30, 0xf4, 0xd3, ,
  0x0b, 0xfe, 0xfb, 0xec, 0xf8, 0xe6, 0x07, 0xf6, 0x09, 0xfe, 0xf7, 0x01, ,
  0x0f, 0xff, 0x01, 0xfc, 0xf3, 0x93, 0x0a, 0x03, 0x02, 0x07, 0x01, 0x81, ,
  0xfe, 0xfb, 0x08, 0x0d, 0xf9, 0xff, 0x09, 0xf6, 0x0d, 0xf9, 0xfc, 0x05, ,
  0x09, 0x05, 0xf9, 0xdf, 0x01, 0x81, 0x05, 0xfc, 0xfd, 0xf8, 0x06, 0xc0, ,
  0xfe, 0x01, 0x04, 0xff, 0x03, 0xfd, 0xff, 0x00, 0x21, 0x03, 0xef, 0xf2, ,
  0x1b, 0x00, 0xfc, 0xeb, 0x06, 0xf9, 0x04, 0xfd, 0x06, 0x0c, 0xf6, 0x7f, ,
  0x21, 0xf8, 0x1b, 0x05, 0x06, 0xf3, 0xde, 0x09, 0xfe, 0xfd, 0x0c, 0x02, ,
  0x00, 0x04, 0x07, 0x11, 0xfc, 0x2c, 0xfe, 0x05, 0xfd, 0xf5, 0x03, 0x81, ,
  0x01, 0x04, 0x03, 0x03, 0x00, 0xff, 0xfc, 0x04, 0x04, 0xfd, 0x06, 0x02, ,
  0x02, 0xff, 0x00, 0xfa, 0x02, 0x7f, 0x02, 0xfe, 0x00, 0x00, 0xfa, 0x96, ,
  0xfa, 0xfc, 0x04, 0x01, 0x02, 0xfd, 0x01, 0x04, 0x01, 0xf8, 0x05, 0xf4, ,
  0xf4, 0xfe, 0x01, 0x0b, 0x00, 0x81, 0x05, 0x02, 0x06, 0xfa, 0x0a, 0x0c, ,
  0xf9, 0x01, 0xe8, 0x0f, 0x07, 0x0a, 0x08, 0xf7, 0x03, 0xfd, 0x05, 0x0d, ,
  0x05, 0x00, 0xf9, 0x01, 0x01, 0xc8, 0xff, 0xfa, 0xfb, 0xfd, 0x00, 0x81, ,
  0xff, 0x02, 0xfd, 0xf9, 0xfd, 0x04, 0x01, 0x07, 0xfb, 0xfd, 0x07, 0x00, ,
  0xff, 0xfb, 0x05, 0xfb, 0xff, 0x19, 0x05, 0xfd, 0x04, 0x02, 0xf9, 0x7f, ,
  0xeb, 0xff, 0x00, 0x00, 0xfe, 0xfe, 0xfe, 0xfe, 0x16, 0x0f, 0xfa, 0x08, ,
  0x11, 0xf8, 0xfd, 0x1e, 0x09, 0xd5, 0x07, 0x1d, 0x0b, 0xef, 0x08, 0x81, ,
  0xf6, 0xf7, 0x02, 0xfb, 0x07, 0x0a, 0x15, 0x06, 0xf5, 0xfd, 0x06, 0x02, ,
  0xef, 0xf9, 0x14, 0x06, 0xf5, 0x7f, 0x02, 0xf4, 0xf9, 0xf4, 0xff, 0xe9, ,
  0xf1, 0x00, 0xe5, 0x0c, 0x00, 0x04, 0x0d, 0xe7, 0x06, 0x00, 0xff, 0xf9, ,
  0xfe, 0xfb, 0x02, 0xfa, 0x00, 0xe3, 0xfb, 0xfe, 0x00, 0xfd, 0xfe, 0x81, ,
  0x01, 0xfd, 0xfb, 0x01, 0xff, 0x06, 0x00, 0xfd, 0x14, 0xf9, 0x06, 0x06, ,
  0x07, 0x00, 0xfa, 0x02, 0x00, 0x61, 0x01, 0x04, 0x08, 0xf5, 0xfe, 0x81, ,
  0x0d, 0xfc, 0xfb, 0x03, 0x08, 0xff, 0x04, 0xf1, 0xfe, 0xf9, 0x06, 0x02, ,
  0x12, 0xfe, 0xf5, 0xf2, 0x09, 0x95, 0xfd, 0x03, 0xf7, 0x1d, 0xfc, 0x7f, ,
  0xf0, 0xf7, 0x18, 0xe3, 0xf8, 0xf3, 0xf5, 0xf9, 0x0a, 0x00, 0x09, 0xff, ,
  0x05, 0x01, 0xfb, 0xdf, 0xfb, 0x7f, 0x05, 0x04, 0x01, 0x13, 0xfe, 0x92, ,
  0x04, 0x01, 0x11, 0x08, 0x01, 0xfa, 0xfe, 0x02, 0x03, 0xfc, 0x09, 0xfa, ,
  0xfa, 0x00, 0x04, 0xf1, 0xf9, 0x7f, 0xfe, 0xfd, 0x08, 0x05, 0xfb, 0x7d, ,
  0x08, 0x04, 0xfb, 0xff, 0xfa, 0xf5, 0xe1, 0x04, 0x04, 0x03, 0x01, 0x04, ,
  0x03, 0xff, 0x02, 0xfa, 0xff, 0x35, 0xff, 0xff, 0xfd, 0xf7, 0xfb, 0x81, ,
  0xfe, 0x03, 0xfe, 0x07, 0x00, 0xff, 0x05, 0x01, 0x0f, 0x08, 0x08, 0xfa, ,
  0xfb, 0xfe, 0x0a, 0x02, 0xfe, 0xf8, 0xfc, 0xfe, 0x08, 0xfd, 0x01, 0x81, ,
  0x07, 0xfe, 0x07, 0x03, 0x05, 0x07, 0x06, 0x04, 0x06, 0x05, 0xff, 0xf3, ,
  0xfc, 0xff, 0x01, 0xf8, 0xf6, 0x7f, 0xf5, 0xfc, 0x07, 0x02, 0x07, 0x1d, ,
  0x11, 0xff, 0xee, 0xff, 0x08, 0xfe, 0xf5, 0xf9, 0x03, 0x0d, 0x1e, 0xf9, ,
  0xec, 0xf1, 0x68, 0x14, 0xd5, 0x81, 0xd6, 0x08, 0xff, 0xf8, 0x5a, 0x86, ,
  0x35, 0xf4, 0x2b, 0x0a, 0x18, 0xfc, 0xf3, 0x03, 0xfe, 0xfd, 0xfa, 0xff, ,
  0x01, 0x01, 0x00, 0x03, 0xfb, 0x61, 0x05, 0x05, 0xff, 0x06, 0x02, 0x81, ,
  0x0f, 0x01, 0x00, 0xf7, 0xfd, 0x04, 0xfb, 0x06, 0x0a, 0x08, 0xff, 0x03, ,
  0x05, 0x0b, 0x00, 0x00, 0x01, 0x7f, 0x03, 0xff, 0x03, 0x16, 0x07, 0x74, ,
  0xf6, 0xfb, 0x03, 0x07, 0x01, 0x0a, 0xf4, 0xff, 0xff, 0x00, 0xf5, 0x0f, ,
  0x0a, 0x01, 0xfd, 0xf5, 0x00, 0x81, 0x11, 0xfa, 0xf3, 0xfe, 0xf8, 0xbe, ,
  0x0b, 0x01, 0xf5, 0xf9, 0xfc, 0xf6, 0xfe, 0xf1, 0x06, 0xff, 0x06, 0xf7, ,
  0xf6, 0xff, 0xf9, 0xfe, 0x08, 0x7f, 0x00, 0x01, 0xfe, 0x07, 0xfa, 0xd3, ,
  0x08, 0x03, 0xfb, 0xfd, 0x04, 0x01, 0x00, 0x06, 0x01, 0x01, 0x00, 0xfe, ,
  0x01, 0x00, 0x00, 0xff, 0x00, 0xfd, 0x00, 0xfe, 0x01, 0x00, 0x00, 0x81, ,
  0x00, 0x04, 0x03, 0x00, 0x01, 0x01, 0xff, 0xfe, 0x06, 0xfa, 0xfa, 0x00, ,
  0xfb, 0xf4, 0x12, 0x09, 0xf6, 0x70, 0x00, 0x05, 0x03, 0x08, 0x04, 0x7f, ,
  0x00, 0xfe, 0x07, 0x05, 0xfe, 0x01, 0x01, 0xe9, 0x05, 0x00, 0xff, 0xff, ,
  0xff, 0x00, 0xfe, 0x00, 0x00, 0x0c, 0x00, 0x04, 0xfe, 0x01, 0x00, 0x81, ,
  0x03, 0x01, 0xfe, 0x00, 0x00, 0x02, 0x01, 0xfd, 0xfc, 0xff, 0x02, 0xfe, ,
  0x03, 0x03, 0xfd, 0x05, 0x00, 0xc0, 0x02, 0xfc, 0x03, 0x0c, 0x02, 0x81, ,
  0xf8, 0xfb, 0x03, 0xf9, 0x00, 0x01, 0xeb, 0x06, 0xea, 0x07, 0x04, 0x0c, ,
  0xf6, 0x00, 0x03, 0xff, 0x00, 0x81, 0x10, 0x02, 0x06, 0xfa, 0x00, 0x85, ,
  0xdd, 0x05, 0xfa, 0x0a, 0x01, 0x02, 0x01, 0x08, 0x09, 0xfd, 0xfa, 0x0e, ,
  0x06, 0xff, 0xff, 0x19, 0x02, 0x81, 0x02, 0xfc, 0xfd, 0xe5, 0x04, 0x37, ,
  0xfe, 0x02, 0x03, 0xf4, 0x00, 0xff, 0xf8, 0xfd, 0x07, 0x05, 0x11, 0xf8, ,
  0xf2, 0x05, 0x08, 0xf8, 0x0f, 0x81, 0x08, 0x03, 0xf6, 0x12, 0xfd, 0x24, ,
  0x0c, 0x06, 0x02, 0x04, 0xfb, 0xfd, 0x05, 0xf1, 0xff, 0x0a, 0x05, 0x05, ,
  0xfe, 0x01, 0x02, 0xfc, 0x06, 0xa7, 0x03, 0x01, 0x01, 0x04, 0x05, 0x81, ,
  0xfd, 0x04, 0xf2, 0xf5, 0x01, 0x02, 0x04, 0x00, 0xfd, 0xfd, 0x02, 0xfe, ,
  0x05, 0x01, 0x00, 0xff, 0x01, 0x4b, 0x01, 0x02, 0x05, 0x02, 0x00, 0x81, ,
  0xff, 0x02, 0xfc, 0xff, 0x00, 0x00, 0x00, 0x00, 0xff, 0x0c, 0x04, 0x00, ,
  0xf9, 0x00, 0xf7, 0xf6, 0x0f, 0xc1, 0x00, 0xff, 0x02, 0x07, 0x04, 0x7f, ,
  0xfb, 0x03, 0xee, 0xff, 0xfe, 0x00, 0xff, 0x06, 0xfe, 0x01, 0x00, 0x01, ,
  0x06, 0x00, 0x01, 0x03, 0x01, 0x0f, 0x01, 0xff, 0xfd, 0x02, 0x02, 0x81, ,
  0x00, 0xff, 0xfd, 0x00, 0xff, 0xfd, 0xfd, 0xff, 0xf1, 0xff, 0x04, 0x0a, ,
  0x00, 0xfe, 0x0b, 0x0d, 0x00, 0x81, 0xf9, 0x04, 0xfa, 0xfb, 0x0b, 0xb5, ,
  0x01, 0xfc, 0x04, 0x08, 0x02, 0x10, 0x06, 0x0a, 0x66, 0xf2, 0xff, 0xff, ,
  0x04, 0x00, 0x00, 0x00, 0xc0, 0x00, 0x00, 0x00, 0xc4, 0x18, 0x00, 0x00, ,
  0xa0, 0x08, 0x00, 0x00, 0x86, 0xfa, 0xff, 0xff, 0x43, 0x08, 0x00, 0x00, ,
  0x69, 0x03, 0x00, 0x00, 0x8c, 0xf8, 0xff, 0xff, 0x87, 0x0c, 0x00, 0x00, ,
  0x49, 0xf7, 0xff, 0xff, 0x59, 0xfe, 0xff, 0xff, 0x5d, 0x0b, 0x00, 0x00, ,
  0xad, 0x01, 0x00, 0x00, 0x90, 0x01, 0x00, 0x00, 0xd6, 0x06, 0x00, 0x00, ,
  0x82, 0x05, 0x00, 0x00, 0x03, 0xff, 0xff, 0xff, 0x5c, 0xf3, 0xff, 0xff, ,
  0x53, 0xfb, 0xff, 0xff, 0x4a, 0x00, 0x00, 0x00, 0xab, 0x09, 0x00, 0x00, ,
  0xc4, 0xfd, 0xff, 0xff, 0xcf, 0x01, 0x00, 0x00, 0x45, 0xee, 0xff, 0xff, ,
  0xfb, 0x16, 0x00, 0x00, 0x4d, 0x05, 0x00, 0x00, 0x3a, 0x06, 0x00, 0x00, ,
  0x9f, 0xfe, 0xff, 0xff, 0x34, 0xf9, 0xff, 0xff, 0x13, 0x05, 0x00, 0x00, ,
  0x31, 0xfe, 0xff, 0xff, 0xf3, 0xf7, 0xff, 0xff, 0x65, 0x0b, 0x00, 0x00, ,
  0xc4, 0xf5, 0xff, 0xff, 0x81, 0x00, 0x00, 0x00, 0x8d, 0xf8, 0xff, 0xff, ,
  0xbb, 0x09, 0x00, 0x00, 0xf7, 0xfc, 0xff, 0xff, 0x81, 0xfe, 0xff, 0xff, ,
  0xf5, 0x0a, 0x00, 0x00, 0xe7, 0x00, 0x00, 0x00, 0x6c, 0x01, 0x00, 0x00, ,
  0x11, 0xfe, 0xff, 0xff, 0xed, 0xfe, 0xff, 0xff, 0x0c, 0xf5, 0xff, 0xff, ,
  0x31, 0xfa, 0xff, 0xff, 0x70, 0xff, 0xff, 0xff, 0x27, 0xf9, 0xff, 0xff, ,
  0xe1, 0x00, 0x00, 0x00, 0x7a, 0xfb, 0xff, 0xff, 0x32, 0xf3, 0xff, 0xff, ,
  0x04, 0x00, 0x00, 0x00, 0xc0, 0x0c, 0x00, 0x00, 0xd9, 0x21, 0x29, 0x41, ,
  0xe5, 0xe5, 0x41, 0x00, 0xf6, 0xcc, 0xe9, 0xa4, 0x7f, 0x5f, 0xe3, 0x02, ,
  0x28, 0xa9, 0xe4, 0x40, 0x28, 0xe7, 0xe6, 0xe4, 0x06, 0x95, 0x19, 0x30, ,
  0x47, 0xda, 0xf3, 0xcf, 0xc2, 0x0f, 0xc6, 0xf4, 0xed, 0x15, 0x01, 0x3c, ,
  0x35, 0xde, 0xe6, 0xe3, 0xfd, 0x16, 0xa9, 0x3e, 0x47, 0xce, 0xb6, 0xf4, ,
  0xf4, 0x0c, 0x16, 0x32, 0xc7, 0x19, 0xf6, 0xd6, 0xaa, 0xea, 0xed, 0xc4, ,
  0x26, 0xfb, 0x1f, 0x00, 0x1f, 0xfd, 0x0a, 0xe9, 0x49, 0x13, 0x42, 0x07, ,
  0xca, 0x2f, 0xf8, 0x21, 0xe5, 0xfe, 0x03, 0xfb, 0xdd, 0x16, 0x7f, 0x0b, ,
  0xf4, 0xf0, 0x14, 0x0d, 0xef, 0x06, 0xcb, 0xf4, 0x06, 0xb7, 0x27, 0xf6, ,
  0x0c, 0xeb, 0xbc, 0x57, 0xbc, 0xcd, 0xf5, 0xf6, 0xfc, 0x22, 0x17, 0x4e, ,
  0x24, 0x15, 0xf4, 0xc0, 0x4d, 0x30, 0xee, 0x7f, 0x06, 0xeb, 0x16, 0xe7, ,
  0xe5, 0xda, 0x0f, 0x0c, 0x11, 0x0d, 0x35, 0x15, 0x02, 0xfe, 0x39, 0xf0, ,
  0x23, 0xd5, 0xdf, 0xf6, 0x08, 0xed, 0x25, 0x11, 0x0c, 0xb6, 0x2f, 0xf4, ,
  0x06, 0xe2, 0xbe, 0x52, 0xbd, 0xd1, 0xff, 0xf0, 0xf8, 0x28, 0x1d, 0x41, ,
  0x20, 0x1d, 0xfa, 0xc6, 0x4a, 0x34, 0xe2, 0x7f, 0x08, 0xf2, 0x14, 0xea, ,
  0xe1, 0xe1, 0x0f, 0x08, 0x16, 0x14, 0x31, 0x06, 0x07, 0x02, 0x2c, 0xeb, ,
  0x20, 0xc9, 0xde, 0x06, 0x00, 0xe9, 0x27, 0x0c, 0x03, 0xb4, 0x1e, 0xf0, ,
  0x0f, 0xe8, 0xb3, 0x3b, 0xda, 0xd4, 0x07, 0xec, 0x01, 0x29, 0x2a, 0x47, ,
  0x1c, 0x12, 0xfa, 0xd2, 0x3d, 0x25, 0xf2, 0x7f, 0xfc, 0xdf, 0x16, 0xe5, ,
  0xf8, 0xef, 0x02, 0x03, 0x16, 0x1a, 0x43, 0x09, 0x02, 0x00, 0x14, 0x08, ,
  0x0f, 0xc6, 0xe2, 0xf8, 0x09, 0xfd, 0x39, 0x02, 0x96, 0xd7, 0xf2, 0x0b, ,
  0x01, 0xd7, 0xe7, 0xf2, 0x02, 0x2b, 0xd5, 0x14, 0x39, 0xe0, 0x27, 0xd1, ,
  0x92, 0xd3, 0xfe, 0xfe, 0xcb, 0x28, 0xdf, 0x81, 0xdf, 0x49, 0x19, 0xde, ,
  0xb8, 0x46, 0x01, 0x4d, 0xd9, 0xd0, 0xa5, 0x66, 0xc8, 0x31, 0xf8, 0xf7, ,
  0x27, 0x30, 0xd3, 0xf4, 0x10, 0xf9, 0xaf, 0xe5, 0x0e, 0xc2, 0x24, 0xed, ,
  0x09, 0xdc, 0xbb, 0x44, 0xcd, 0xd1, 0x0a, 0xf3, 0x11, 0x2a, 0x21, 0x53, ,
  0x20, 0x10, 0xf2, 0xd0, 0x38, 0x33, 0xf8, 0x7f, 0xfc, 0xdf, 0x1b, 0xd6, ,
  0xf3, 0x04, 0x03, 0x04, 0x20, 0x0c, 0x28, 0x09, 0x02, 0xfc, 0x25, 0x09, ,
  0x0f, 0xcd, 0xcb, 0x0c, 0xfe, 0xf9, 0x43, 0xee, 0x12, 0xde, 0x81, 0x04, ,
  0xf3, 0x0d, 0x42, 0x17, 0xaa, 0x08, 0x03, 0xf9, 0xda, 0xcc, 0xd9, 0xe1, ,
  0x1d, 0x0d, 0x1a, 0xfa, 0x70, 0xe4, 0x13, 0xdd, 0x4c, 0x0c, 0x54, 0x40, ,
  0xbc, 0x32, 0xfa, 0x23, 0xfd, 0xf5, 0x14, 0x26, 0xe1, 0x2b, 0x63, 0x98, ,
  0xef, 0xe0, 0x21, 0x0c, 0xfc, 0x09, 0xbe, 0xfc, 0xdd, 0xe7, 0xa5, 0xfe, ,
  0x11, 0x0a, 0x35, 0xcd, 0xb7, 0xc3, 0x34, 0x01, 0x3b, 0xe4, 0xf0, 0xf4, ,
  0x21, 0x0d, 0xed, 0xdf, 0x7f, 0xd9, 0x13, 0x20, 0x1f, 0x0a, 0x2a, 0x3c, ,
  0xed, 0x23, 0x17, 0x08, 0x1a, 0x06, 0x3b, 0x40, 0x02, 0x1d, 0xfe, 0x86, ,
  0xef, 0xe0, 0x14, 0xed, 0x2a, 0x16, 0xe6, 0x1d, 0xed, 0xe5, 0xb3, 0x06, ,
  0xfb, 0x11, 0x3e, 0xf4, 0xc9, 0xfd, 0x0c, 0xfc, 0x1d, 0xe4, 0xf7, 0xf2, ,
  0x08, 0x1a, 0xf1, 0xf5, 0x7f, 0xe8, 0x0e, 0xe1, 0x2c, 0x01, 0x2c, 0x38, ,
  0xdc, 0x25, 0x16, 0x15, 0x07, 0xea, 0x10, 0x1f, 0xf3, 0x15, 0x2e, 0x94, ,
  0x00, 0xf3, 0x15, 0xff, 0x06, 0x0b, 0xe2, 0xfa, 0xb0, 0x15, 0xc9, 0x7f, ,
  0xd6, 0x04, 0x19, 0xeb, 0x3b, 0xf6, 0x13, 0x06, 0x79, 0x64, 0xe3, 0x00, ,
  0xfe, 0x08, 0xcc, 0x53, 0xf4, 0xc9, 0xf5, 0xdc, 0xf5, 0x9f, 0xde, 0x45, ,
  0x31, 0xd0, 0x0c, 0xd5, 0xd5, 0x3a, 0xe1, 0x1d, 0x0b, 0x0a, 0xce, 0x08, ,
  0x30, 0x28, 0xfe, 0xe6, 0x01, 0x08, 0xe2, 0x54, 0x18, 0x04, 0x7f, 0xa0, ,
  0x0d, 0xd2, 0x43, 0x06, 0xc5, 0xcb, 0xd5, 0x9d, 0x17, 0x0d, 0xfc, 0x00, ,
  0x24, 0x8e, 0x0a, 0xfc, 0x12, 0x27, 0xf3, 0x00, 0x16, 0xd8, 0x39, 0xed, ,
  0x31, 0xd3, 0xde, 0xfa, 0xda, 0xe9, 0xee, 0xf3, 0xde, 0x0b, 0x18, 0x45, ,
  0x04, 0x8a, 0xea, 0xef, 0x07, 0x0f, 0xcb, 0xfc, 0x43, 0xed, 0x91, 0x38, ,
  0xe5, 0x04, 0x07, 0x3a, 0xcf, 0x12, 0xe4, 0xd2, 0xc9, 0x16, 0xe8, 0xb7, ,
  0x2d, 0x05, 0x30, 0x18, 0x20, 0xf1, 0x01, 0xd1, 0x2e, 0x08, 0x25, 0x01, ,
  0xc9, 0x26, 0xe7, 0x1d, 0xd9, 0x1f, 0xd4, 0x03, 0xdd, 0x25, 0x7f, 0x01, ,
  0x17, 0x01, 0x05, 0x0f, 0xec, 0xf9, 0x9f, 0xfb, 0xd7, 0x0f, 0x31, 0x22, ,
  0xe3, 0xd9, 0x44, 0x12, 0xe4, 0xcf, 0xd6, 0xb1, 0x75, 0x6c, 0xe5, 0xee, ,
  0x28, 0xa7, 0xcc, 0x45, 0x04, 0xf3, 0xfe, 0xdc, 0x10, 0x81, 0x1c, 0x21, ,
  0x45, 0xc2, 0xfb, 0xd9, 0xb7, 0x15, 0xbe, 0x14, 0xe3, 0x17, 0x1e, 0x5c, ,
  0x2c, 0xbd, 0xe2, 0xe4, 0xfe, 0x12, 0xa7, 0x40, 0xe2, 0x45, 0xbe, 0x25, ,
  0xef, 0xe4, 0x7f, 0xe0, 0x2c, 0xdd, 0x18, 0x07, 0xf0, 0xfe, 0xb4, 0x0a, ,
  0xf4, 0xf6, 0x06, 0x56, 0xd4, 0xda, 0x03, 0xd6, 0xf2, 0xda, 0x03, 0x60, ,
  0x0c, 0xc8, 0xf1, 0xdd, 0xc2, 0x58, 0xff, 0x1c, 0x0a, 0x1d, 0xc6, 0xb8, ,
  0xf1, 0xe0, 0x3b, 0xec, 0x18, 0xfd, 0xda, 0x4d, 0x02, 0xcd, 0xc8, 0xf8, ,
  0xd6, 0x13, 0x07, 0x27, 0xc4, 0x1e, 0xb7, 0x30, 0xc7, 0xc2, 0xf3, 0xfc, ,
  0x2b, 0x2e, 0x02, 0xba, 0x5b, 0xde, 0x02, 0xb6, 0x46, 0x0a, 0x3c, 0x27, ,
  0xb5, 0x1a, 0x0c, 0x16, 0x1f, 0x87, 0x14, 0xf3, 0xdb, 0x2e, 0x7f, 0x83, ,
  0xf5, 0xf6, 0x1c, 0x20, 0xe9, 0x10, 0xab, 0xd1, 0x08, 0xd4, 0xf9, 0xdd, ,
  0xdc, 0x06, 0x11, 0x2a, 0xc2, 0xe6, 0xb9, 0x11, 0xeb, 0xf9, 0xfa, 0xec, ,
  0x41, 0xef, 0xee, 0xca, 0x0b, 0xe9, 0x1d, 0xc9, 0x44, 0xf1, 0x2b, 0x13, ,
  0xe3, 0x02, 0xfb, 0x08, 0x03, 0x92, 0xf9, 0xf3, 0xe3, 0x12, 0x7f, 0xf5, ,
  0x0b, 0xbe, 0x08, 0x04, 0xee, 0x14, 0xa1, 0xe5, 0x0d, 0x1e, 0x75, 0xcd, ,
  0x0b, 0xf9, 0xcc, 0xff, 0x39, 0x06, 0xd3, 0x02, 0x08, 0x25, 0x10, 0x03, ,
  0xd4, 0xf1, 0x00, 0x18, 0x81, 0x32, 0x08, 0xfa, 0xcf, 0xfc, 0xe0, 0xc1, ,
  0x22, 0xc9, 0xe0, 0x00, 0x03, 0xd7, 0x02, 0xdd, 0x1d, 0xe0, 0xd2, 0x62, ,
  0xfa, 0xfe, 0xdd, 0x00, 0xfb, 0xff, 0x26, 0xec, 0xfa, 0x04, 0xce, 0x10, ,
  0x31, 0xf8, 0x13, 0xbc, 0xf9, 0xc5, 0x6d, 0xcf, 0x6d, 0x0a, 0x00, 0x1e, ,
  0xfc, 0x05, 0x04, 0x14, 0x44, 0xf8, 0xf8, 0x4d, 0xd0, 0xf7, 0xed, 0x02, ,
  0x05, 0x13, 0xfd, 0xeb, 0x0d, 0x7c, 0x43, 0x3a, 0x24, 0xf7, 0x81, 0xd9, ,
  0xf4, 0xee, 0xea, 0xdb, 0x35, 0x00, 0x3c, 0x39, 0xfd, 0xe9, 0xd9, 0x3c, ,
  0xf1, 0x1c, 0x15, 0xf9, 0x1c, 0x30, 0xfa, 0xed, 0xe4, 0xf6, 0xec, 0x07, ,
  0xef, 0x29, 0xf4, 0x00, 0x7f, 0xef, 0x03, 0x89, 0x0f, 0x0a, 0x04, 0x28, ,
  0xe4, 0x3c, 0x1a, 0x00, 0xef, 0x00, 0xee, 0xfd, 0xde, 0x0c, 0x06, 0x93, ,
  0x1f, 0x5f, 0x05, 0xfa, 0x02, 0x09, 0xe5, 0xe1, 0x81, 0x11, 0xe1, 0x42, ,
  0xdf, 0xef, 0xdc, 0xbc, 0x2e, 0x29, 0x17, 0x4b, 0x2b, 0x29, 0x0a, 0x10, ,
  0x24, 0x10, 0xfc, 0x11, 0x00, 0xe3, 0xed, 0x0a, 0xe8, 0x05, 0xc3, 0xf1, ,
  0x32, 0xf7, 0x2c, 0xda, 0x31, 0x57, 0xd8, 0xe9, 0xec, 0x0c, 0xe5, 0x08, ,
  0x3a, 0x47, 0x29, 0x0e, 0x03, 0xe0, 0xe3, 0x09, 0xa9, 0xe6, 0xc6, 0x34, ,
  0xe3, 0x1e, 0xe4, 0x21, 0xd4, 0x24, 0x02, 0x13, 0xfc, 0x03, 0x06, 0xde, ,
  0x1e, 0x17, 0xe9, 0x09, 0xf6, 0xe7, 0xfd, 0x7f, 0x35, 0xff, 0xd2, 0x0d, ,
  0x14, 0x1f, 0x2f, 0x03, 0xfe, 0xc3, 0x06, 0x14, 0x10, 0x19, 0x3a, 0x4a, ,
  0xe7, 0x18, 0x2f, 0x10, 0xdc, 0x07, 0xf4, 0x0c, 0xfb, 0x28, 0x20, 0x5f, ,
  0xe3, 0x11, 0xed, 0x3a, 0xfb, 0x18, 0xe1, 0x1b, 0xee, 0xf8, 0xfe, 0xf2, ,
  0xee, 0x18, 0x01, 0x21, 0xe4, 0xff, 0xda, 0x7f, 0x05, 0xf0, 0x04, 0x05, ,
  0x00, 0xcb, 0x00, 0x17, 0xf7, 0xf3, 0xff, 0xe3, 0x25, 0x06, 0x10, 0x3b, ,
  0xea, 0x0b, 0x18, 0x12, 0xcc, 0xf7, 0x17, 0x04, 0x54, 0x26, 0xd5, 0x29, ,
  0x17, 0x01, 0xfc, 0x05, 0xda, 0x9c, 0x1a, 0x4e, 0xfa, 0xf9, 0xd7, 0xcb, ,
  0xf8, 0xff, 0xef, 0xbd, 0x81, 0xf2, 0xe2, 0x74, 0xf1, 0xff, 0x42, 0x2a, ,
  0x03, 0xe9, 0x16, 0x16, 0x2b, 0xee, 0x08, 0x03, 0x2d, 0xf9, 0xdb, 0xee, ,
  0xd0, 0x28, 0x0e, 0x17, 0x1e, 0x07, 0xf9, 0x43, 0x5d, 0x04, 0xd6, 0x0c, ,
  0x09, 0xf6, 0x05, 0x18, 0xf5, 0xf3, 0x1f, 0xff, 0x23, 0x08, 0xfb, 0x32, ,
  0xd0, 0xd9, 0xf6, 0x25, 0x8e, 0x01, 0xc5, 0x81, 0xd6, 0xe8, 0xe4, 0x20, ,
  0x23, 0xdb, 0xee, 0xfc, 0x08, 0x32, 0xf6, 0x1c, 0xed, 0xfc, 0xb9, 0xf8, ,
  0x00, 0x0b, 0xe5, 0xe7, 0x1d, 0xe6, 0xf3, 0x15, 0x27, 0xf1, 0xd9, 0xa9, ,
  0x29, 0xe6, 0xf9, 0xcd, 0xd8, 0xc9, 0x6a, 0xff, 0x21, 0x14, 0xf9, 0xf7, ,
  0x3f, 0x95, 0x0a, 0xf9, 0x7f, 0x19, 0xf6, 0x96, 0xfe, 0x20, 0xde, 0x13, ,
  0x26, 0x25, 0xf4, 0xd1, 0xdb, 0x3b, 0x0a, 0x2a, 0xe9, 0xf9, 0xd9, 0x51, ,
  0x13, 0xc5, 0xe2, 0xd0, 0x32, 0x11, 0xd9, 0x11, 0xea, 0x0f, 0x54, 0xf1, ,
  0xf9, 0xfa, 0x22, 0xe8, 0x26, 0x09, 0xf0, 0x19, 0xf7, 0x12, 0xf0, 0x05, ,
  0xe7, 0xe9, 0x0f, 0x0f, 0x7f, 0x27, 0x09, 0xec, 0xf1, 0x12, 0x0e, 0xe4, ,
  0x16, 0xfc, 0xef, 0x03, 0xb8, 0xdd, 0x13, 0xe2, 0x05, 0xf7, 0xf7, 0x41, ,
  0x16, 0x17, 0xf2, 0xfd, 0xfc, 0x02, 0x00, 0xfa, 0xd6, 0x1f, 0x40, 0xe8, ,
  0xea, 0xf7, 0x4f, 0xff, 0xdd, 0xf1, 0x04, 0x14, 0xe5, 0xd9, 0xfb, 0x0c, ,
  0x25, 0xf5, 0x0c, 0x15, 0x3d, 0xdd, 0x22, 0x7f, 0x24, 0x03, 0x2b, 0xbd, ,
  0xe6, 0xd8, 0xe3, 0xf1, 0xe5, 0x26, 0x11, 0xf9, 0x0d, 0x14, 0x38, 0xfb, ,
  0xf7, 0x92, 0x15, 0x2a, 0xf6, 0xf3, 0x13, 0x13, 0xf3, 0x18, 0x2a, 0x01, ,
  0xf2, 0x1c, 0x4f, 0x0e, 0x30, 0x13, 0x15, 0x01, 0xb3, 0xeb, 0xf1, 0x14, ,
  0x07, 0x00, 0x16, 0x21, 0xbd, 0xe0, 0xe4, 0x5a, 0x06, 0xf7, 0x10, 0x8d, ,
  0xf9, 0xce, 0xf6, 0xfd, 0xd4, 0x2f, 0xd9, 0x04, 0xeb, 0x0f, 0xf5, 0x81, ,
  0xdc, 0x30, 0x22, 0x04, 0xf9, 0xfb, 0x48, 0x0b, 0xca, 0x51, 0xfd, 0xdf, ,
  0x68, 0x6e, 0xd3, 0x00, 0xc8, 0x62, 0x09, 0xc7, 0x17, 0x55, 0x0c, 0x3d, ,
  0x36, 0x1f, 0xd0, 0xdd, 0x3b, 0x0b, 0xef, 0x27, 0x23, 0xa7, 0x29, 0xfb, ,
  0xff, 0xb4, 0xf9, 0x01, 0x07, 0x2f, 0xaa, 0xe2, 0xe6, 0x4e, 0xd3, 0x03, ,
  0x05, 0x8e, 0xda, 0x48, 0xfe, 0x7f, 0x9c, 0x3a, 0xe0, 0x28, 0xfa, 0x21, ,
  0x1c, 0x7f, 0x23, 0x0a, 0xf4, 0x28, 0x1c, 0xf9, 0x02, 0x14, 0x16, 0x33, ,
  0x56, 0xdd, 0xf6, 0xb3, 0x19, 0x07, 0xf1, 0x10, 0xf2, 0x1d, 0x15, 0xf1, ,
  0xe8, 0xf1, 0xf4, 0x03, 0x21, 0xf4, 0xdc, 0xd7, 0xf3, 0x25, 0xbe, 0x07, ,
  0xf6, 0xd1, 0xf3, 0xce, 0xa8, 0x1d, 0xe6, 0x20, 0xdb, 0xce, 0x19, 0xca, ,
  0xda, 0x7f, 0x24, 0x20, 0xff, 0x4e, 0xe6, 0x0b, 0xf3, 0x2a, 0x01, 0x07, ,
  0x26, 0x30, 0xfc, 0xf9, 0xe3, 0xb9, 0xdd, 0x0f, 0xe6, 0x26, 0x26, 0xf1, ,
  0xf2, 0xee, 0xf6, 0x19, 0x12, 0xb7, 0xf4, 0xd8, 0xca, 0x23, 0x1a, 0x05, ,
  0xe4, 0x29, 0xfe, 0xea, 0xa3, 0xde, 0xb4, 0xea, 0x17, 0xef, 0x3b, 0x23, ,
  0xcb, 0x21, 0xfe, 0xff, 0x1c, 0xd5, 0xf0, 0x13, 0x21, 0x0f, 0x00, 0x25, ,
  0xeb, 0x19, 0xe9, 0xc3, 0x15, 0x0e, 0x46, 0x99, 0xe6, 0x4d, 0x1f, 0xf6, ,
  0xfe, 0xfe, 0xdd, 0x45, 0x3b, 0xe6, 0xd6, 0xa4, 0x96, 0x10, 0x0c, 0xe9, ,
  0x81, 0x8c, 0x21, 0xbb, 0xce, 0xc3, 0x65, 0xd9, 0x13, 0xdd, 0xf4, 0xc8, ,
  0xfd, 0xcb, 0x1d, 0x3d, 0xc3, 0x6e, 0x36, 0x1c, 0xdd, 0x11, 0xf9, 0xdf, ,
  0x41, 0xaf, 0xc4, 0x12, 0x39, 0xd7, 0xf6, 0x2e, 0xd4, 0xfe, 0x1e, 0xf1, ,
  0xef, 0xf9, 0xf9, 0x0c, 0x2f, 0xba, 0x15, 0xd6, 0x7f, 0x0e, 0xe5, 0xdc, ,
  0x30, 0xfe, 0xd3, 0xb2, 0x92, 0xe5, 0xdd, 0x10, 0xff, 0xd1, 0x12, 0xed, ,
  0x15, 0x01, 0xd7, 0xe7, 0x32, 0x9a, 0x1b, 0xd9, 0xef, 0x18, 0x06, 0xf1, ,
  0x1e, 0x40, 0xdc, 0xf6, 0x20, 0x1c, 0x2a, 0xf9, 0x09, 0x27, 0xe3, 0x04, ,
  0xfc, 0x37, 0x00, 0x0f, 0xe8, 0xe4, 0xdd, 0x24, 0x81, 0x04, 0xfd, 0x47, ,
  0xe8, 0x25, 0xf8, 0xb3, 0xcb, 0xd4, 0xf0, 0xfd, 0xf9, 0xdd, 0xf4, 0x07, ,
  0xf5, 0xc2, 0xd5, 0xd8, 0x47, 0x6e, 0x38, 0xe5, 0xf4, 0x42, 0xb5, 0xd0, ,
  0x47, 0xc3, 0xe6, 0xa2, 0x40, 0x33, 0xf6, 0xf0, 0xd9, 0x0a, 0xf7, 0xed, ,
  0xec, 0x2c, 0x11, 0x0c, 0xe8, 0xdc, 0xd3, 0xdc, 0x28, 0x57, 0xdc, 0xf1, ,
  0x0f, 0x7f, 0x03, 0xf3, 0xe8, 0xcd, 0x79, 0x16, 0x17, 0xe4, 0xd2, 0xea, ,
  0x24, 0xe4, 0x05, 0xea, 0x11, 0xbf, 0x27, 0xe8, 0xe8, 0x15, 0xe9, 0xee, ,
  0x1e, 0x26, 0xef, 0xf5, 0xbf, 0x14, 0xda, 0x10, 0xef, 0x07, 0x01, 0x11, ,
  0xf0, 0x30, 0x10, 0xfa, 0x02, 0xff, 0xc3, 0x2d, 0x1b, 0x10, 0xe0, 0xd6, ,
  0x0d, 0x7f, 0xef, 0xd7, 0xe1, 0xe9, 0x01, 0x1a, 0x1e, 0xe7, 0xe9, 0x0c, ,
  0x12, 0xe5, 0xd5, 0xf5, 0x2e, 0x24, 0x38, 0xf5, 0xfa, 0x4b, 0xf1, 0xad, ,
  0x1f, 0xbc, 0xc9, 0xc6, 0x08, 0x2e, 0x12, 0x2c, 0x0b, 0xf2, 0xe3, 0x3e, ,
  0xe6, 0x2f, 0x15, 0x11, 0xcc, 0xd3, 0xef, 0x01, 0x81, 0x16, 0x08, 0x53, ,
  0x25, 0x54, 0xe9, 0xf5, 0xde, 0xea, 0xfa, 0x1b, 0xf6, 0x0e, 0x05, 0x08, ,
  0x09, 0xd6, 0xc2, 0xf1, 0xfc, 0xd9, 0x0b, 0x3d, 0xf3, 0x09, 0xe5, 0xf5, ,
  0xff, 0xfa, 0xed, 0xe7, 0x40, 0x13, 0x29, 0xf7, 0xd3, 0x42, 0x45, 0xf0, ,
  0x0a, 0x01, 0xcc, 0x27, 0xda, 0xd5, 0x03, 0xe7, 0x7f, 0x18, 0x23, 0x78, ,
  0xe0, 0xe6, 0xe2, 0x2b, 0x04, 0xd0, 0x1d, 0x40, 0x1b, 0xfa, 0xf0, 0xd2, ,
  0x2f, 0xd0, 0xec, 0x03, 0xbe, 0x0a, 0x1d, 0xf2, 0xfe, 0xec, 0x1d, 0x12, ,
  0x08, 0x29, 0xf5, 0xed, 0x7f, 0xf1, 0xdf, 0x0f, 0x07, 0xb1, 0xd4, 0x9e, ,
  0xe6, 0x00, 0x18, 0x0a, 0x64, 0x3a, 0xd3, 0x06, 0xb8, 0x0c, 0x08, 0xb9, ,
  0x27, 0xd8, 0x02, 0xde, 0xe4, 0xef, 0xf1, 0x03, 0xee, 0xe8, 0xd2, 0x01, ,
  0x0c, 0xed, 0x0b, 0xed, 0xdf, 0x1b, 0x2b, 0x81, 0x18, 0x0e, 0x0f, 0x17, ,
  0x2b, 0xdb, 0x07, 0x0f, 0xf4, 0x15, 0x1d, 0x2f, 0x0f, 0xd6, 0xf2, 0x4a, ,
  0xfc, 0x1e, 0xe4, 0xf5, 0xf1, 0xfe, 0xf6, 0xf0, 0xff, 0x1d, 0xf6, 0x08, ,
  0x0c, 0xee, 0x1b, 0x0c, 0xec, 0xef, 0x04, 0x06, 0x12, 0xd7, 0xd1, 0x00, ,
  0x25, 0x23, 0xd8, 0xc9, 0x4a, 0xe9, 0xfc, 0xfe, 0x09, 0x3f, 0xe6, 0xba, ,
  0x0e, 0x0e, 0xdf, 0xea, 0xe6, 0x2c, 0x02, 0x0e, 0xfe, 0x14, 0x19, 0x37, ,
  0xcf, 0x48, 0xfb, 0x07, 0xc7, 0xe2, 0xfa, 0x01, 0x23, 0x0c, 0x02, 0x21, ,
  0x11, 0x7f, 0xed, 0xde, 0x0a, 0x27, 0x0a, 0x24, 0xe5, 0x08, 0xf6, 0xe9, ,
  0x37, 0x92, 0x14, 0x3d, 0x22, 0x43, 0x09, 0x1a, 0xe7, 0x0f, 0x34, 0x0f, ,
  0xee, 0x0a, 0x15, 0x14, 0x18, 0xc2, 0xf0, 0xde, 0x21, 0x12, 0xf6, 0x08, ,
  0x1c, 0x27, 0x02, 0xe7, 0xfd, 0xdc, 0xfe, 0xcb, 0x07, 0x33, 0xff, 0x13, ,
  0x81, 0xf2, 0xd1, 0x08, 0xfb, 0x02, 0x03, 0xd9, 0x0b, 0xfb, 0x9d, 0xfb, ,
  0xf3, 0x7f, 0x23, 0x00, 0x1a, 0x99, 0x4c, 0x27, 0x2e, 0xb9, 0xcb, 0xdb, ,
  0xba, 0xcb, 0x04, 0x16, 0xdf, 0x74, 0x3f, 0xeb, 0x93, 0xf3, 0x1c, 0xf9, ,
  0x4d, 0xe8, 0xf3, 0xee, 0x1a, 0x09, 0xf0, 0xf7, 0xa9, 0x0d, 0x27, 0x0d, ,
  0x34, 0xb6, 0xda, 0xeb, 0x1c, 0x52, 0xdb, 0x21, 0x07, 0xf3, 0xfe, 0x10, ,
  0xd3, 0xbd, 0x33, 0x0c, 0xf1, 0xf4, 0xca, 0xd5, 0x0a, 0xf0, 0x0d, 0xfa, ,
  0x35, 0x21, 0x0b, 0xbc, 0xf3, 0xc1, 0x06, 0x26, 0x56, 0x05, 0x06, 0xf0, ,
  0x9c, 0x0c, 0x12, 0x15, 0x10, 0x08, 0xe5, 0xa7, 0x33, 0xa4, 0x09, 0x1f, ,
  0xfe, 0x7f, 0x11, 0xc7, 0x2b, 0x8f, 0x30, 0x07, 0x3f, 0xe1, 0xd3, 0x12, ,
  0x22, 0xaf, 0xc1, 0xc8, 0x82, 0xd9, 0xc8, 0xfb, 0xe5, 0x5a, 0xf5, 0x08, ,
  0x58, 0xd7, 0xef, 0x44, 0x1a, 0x25, 0x0d, 0x26, 0xab, 0x12, 0x19, 0xf5, ,
  0xf0, 0x1c, 0x26, 0x08, 0xbe, 0xfc, 0x14, 0x4b, 0xbe, 0xd6, 0x9c, 0xab, ,
  0x16, 0xc5, 0x18, 0x62, 0xbd, 0x7f, 0x57, 0x32, 0x34, 0x1a, 0x5e, 0x02, ,
  0x9b, 0x01, 0xa8, 0xf9, 0xd2, 0x1b, 0xc2, 0xc9, 0xec, 0x42, 0x11, 0xe8, ,
  0x48, 0x33, 0xe6, 0x0c, 0x02, 0xea, 0xae, 0x1b, 0x30, 0xed, 0x00, 0x02, ,
  0xae, 0x7f, 0xfc, 0x31, 0xf0, 0xf3, 0x01, 0xfd, 0x3e, 0x88, 0xdd, 0xdb, ,
  0xe5, 0x0e, 0x39, 0x11, 0x09, 0x85, 0x3c, 0x18, 0x03, 0xfa, 0x4b, 0x3e, ,
  0x32, 0x97, 0xfa, 0xdc, 0xae, 0xf0, 0xec, 0x32, 0xf9, 0x4d, 0xe8, 0x26, ,
  0x3e, 0x0f, 0xf2, 0x10, 0xce, 0x05, 0xd2, 0xfd, 0xdb, 0xe2, 0xe0, 0x12, ,
  0xe8, 0xc1, 0xcf, 0xf3, 0xe8, 0xfe, 0xf5, 0x7f, 0x08, 0xf7, 0x0c, 0xdd, ,
  0x27, 0x27, 0x69, 0x31, 0xa8, 0x56, 0x07, 0xf8, 0x15, 0x3d, 0x33, 0x1b, ,
  0xcc, 0x7f, 0xda, 0x42, 0x3f, 0xd5, 0x32, 0x1f, 0xef, 0x14, 0x1f, 0xcb, ,
  0xe4, 0x06, 0xfb, 0xf0, 0xe4, 0x0a, 0xdd, 0xcf, 0x06, 0xe1, 0xc4, 0x1c, ,
  0x0c, 0x2a, 0xde, 0xed, 0xe8, 0x16, 0x27, 0x1f, 0x4e, 0xda, 0x3b, 0xe8, ,
  0xaf, 0x02, 0x14, 0xd7, 0xfb, 0xa9, 0xb8, 0xfb, 0x02, 0xe8, 0x0c, 0x27, ,
  0x35, 0xc0, 0x2d, 0xf3, 0x09, 0xb0, 0x23, 0x28, 0x04, 0x18, 0xf6, 0x17, ,
  0xd5, 0xc8, 0xfd, 0xc4, 0xc2, 0x02, 0x0e, 0xe0, 0x04, 0x08, 0xd3, 0xfe, ,
  0xed, 0x81, 0xe6, 0xd5, 0xdf, 0x5e, 0x07, 0x3a, 0x37, 0x28, 0x33, 0x19, ,
  0x29, 0x41, 0x36, 0x13, 0x9b, 0x39, 0xac, 0xd2, 0x43, 0x28, 0xd3, 0xc2, ,
  0xc4, 0x5d, 0xec, 0xfe, 0x53, 0x9d, 0x30, 0xf6, 0x01, 0x08, 0x1a, 0xf4, ,
  0x81, 0x9c, 0x11, 0xcd, 0x1e, 0x19, 0x23, 0xdb, 0x00, 0x02, 0xfe, 0xed, ,
  0xfb, 0xe5, 0x19, 0xf2, 0xc5, 0x55, 0x21, 0xe1, 0x62, 0x08, 0x29, 0x01, ,
  0xcb, 0x0f, 0xcc, 0xf5, 0xd4, 0xad, 0xd5, 0xe9, 0x3e, 0xfc, 0xc2, 0xad, ,
  0x0a, 0xb5, 0x34, 0xb4, 0xd9, 0x93, 0xf3, 0xe5, 0xfb, 0x29, 0x05, 0x24, ,
  0xac, 0x81, 0x11, 0xd5, 0x32, 0x1f, 0x42, 0xf5, 0xed, 0x0c, 0x1d, 0xe7, ,
  0xdb, 0xc2, 0x4a, 0xeb, 0xb2, 0x53, 0x0d, 0xd8, 0x23, 0x03, 0xdc, 0xd5, ,
  0x01, 0x1b, 0xe0, 0x1a, 0xab, 0x33, 0x15, 0x01, 0x48, 0xfc, 0xac, 0xaa, ,
  0xea, 0xf8, 0x44, 0xd6, 0xb0, 0xb5, 0x9b, 0xde, 0x06, 0xf6, 0xf8, 0x0a, ,
  0x11, 0x81, 0x39, 0xe7, 0x4a, 0x03, 0x1b, 0x39, 0x2f, 0xfc, 0x1d, 0xfb, ,
  0xc8, 0x05, 0x2f, 0x0b, 0xd4, 0x58, 0x45, 0xab, 0x13, 0xd0, 0xba, 0xd3, ,
  0xdc, 0x0e, 0x95, 0x32, 0xe6, 0x97, 0x34, 0x17, 0x2a, 0x01, 0xee, 0xd1, ,
  0xf8, 0xc8, 0x3f, 0x2b, 0xe5, 0x40, 0xb6, 0x22, 0xe3, 0xe2, 0x26, 0xfe, ,
  0x4a, 0xf5, 0x0d, 0x3a, 0x4e, 0x08, 0xf7, 0x5c, 0x00, 0xca, 0x1c, 0x36, ,
  0x18, 0x71, 0xf0, 0x0d, 0x15, 0x00, 0x5a, 0xc3, 0xe6, 0xd9, 0xa6, 0xb0, ,
  0x81, 0x99, 0xad, 0xec, 0x0e, 0x3b, 0x5d, 0x25, 0xcb, 0xd5, 0x12, 0x53, ,
  0x0b, 0xc4, 0x65, 0x39, 0xe0, 0xeb, 0xd0, 0x5b, 0x0f, 0x08, 0xe3, 0xff, ,
  0x7f, 0x2a, 0xfe, 0x26, 0xed, 0xd1, 0xdf, 0x54, 0x35, 0xd1, 0xe3, 0x1d, ,
  0xd0, 0xc2, 0xb7, 0x15, 0x5c, 0xf2, 0xfd, 0xf8, 0xf6, 0xe8, 0x0d, 0x0e, ,
  0x37, 0x24, 0x11, 0x15, 0x15, 0xe3, 0x27, 0xfd, 0x0d, 0x1c, 0x23, 0x2a, ,
  0xe0, 0x7f, 0x77, 0x28, 0xd2, 0x28, 0x4b, 0x00, 0xf5, 0xaf, 0x0c, 0x3b, ,
  0x4a, 0x3c, 0xe5, 0x87, 0x9e, 0x1d, 0x4d, 0x05, 0x14, 0x2a, 0xf1, 0xce, ,
  0xdb, 0xd1, 0xfb, 0x2d, 0x50, 0x50, 0xe4, 0xaa, 0xf8, 0xe7, 0xa3, 0x25, ,
  0xc1, 0xa2, 0x0b, 0xd7, 0xa0, 0x1f, 0xd5, 0xfd, 0x19, 0xdb, 0x06, 0xc5, ,
  0x40, 0xc9, 0x8b, 0xdb, 0xfe, 0x0f, 0xa6, 0xf2, 0x24, 0x29, 0xec, 0xd8, ,
  0xc2, 0x4d, 0xfb, 0x33, 0xdb, 0xf2, 0x0c, 0x00, 0x1b, 0xb2, 0xdb, 0x28, ,
  0x59, 0xe8, 0x0d, 0xe3, 0xaa, 0xfe, 0x0d, 0x62, 0xea, 0x17, 0x33, 0xf1, ,
  0x04, 0x6d, 0x0c, 0x52, 0x7f, 0x30, 0xf6, 0x03, 0xfa, 0xd6, 0x3d, 0xd9, ,
  0xc6, 0x2a, 0x51, 0x3a, 0xd1, 0x39, 0xd1, 0x1c, 0xe7, 0xe2, 0xef, 0x02, ,
  0x0b, 0x2c, 0x01, 0x01, 0xf2, 0xc4, 0xed, 0x12, 0xe1, 0x57, 0x30, 0xf4, ,
  0x04, 0xf9, 0xfb, 0x08, 0x29, 0xcb, 0xfc, 0xea, 0xda, 0xfc, 0x0c, 0xf4, ,
  0xe5, 0x20, 0x01, 0xe4, 0x81, 0x98, 0xaf, 0xe8, 0xd0, 0x1a, 0xe5, 0xa1, ,
  0x4e, 0xf3, 0xf2, 0x0c, 0xb2, 0x42, 0xfc, 0xe8, 0xca, 0xef, 0x0a, 0x02, ,
  0xfa, 0xd9, 0xff, 0x51, 0x2f, 0xf8, 0xdf, 0x7f, 0x12, 0xbb, 0xfd, 0x28, ,
  0x01, 0x1a, 0x03, 0xcf, 0xf6, 0xee, 0x12, 0x54, 0x73, 0xf2, 0x11, 0x17, ,
  0x6c, 0x49, 0xca, 0x1b, 0x23, 0x75, 0xa8, 0x29, 0xcf, 0xe4, 0xd9, 0xe2, ,
  0x03, 0xbe, 0x30, 0x18, 0xe1, 0x5f, 0x1d, 0x06, 0xdc, 0xe7, 0xfb, 0x05, ,
  0x2e, 0x96, 0x01, 0x23, 0x60, 0xdc, 0xd1, 0x41, 0xcc, 0x0a, 0x39, 0x05, ,
  0xdb, 0x06, 0xf2, 0x12, 0x23, 0xe1, 0x3b, 0xd1, 0x7f, 0xef, 0xeb, 0xcd, ,
  0x50, 0xf2, 0xfe, 0xc5, 0xb7, 0xbc, 0xc2, 0x02, 0xe7, 0x0b, 0xea, 0x07, ,
  0x04, 0x0b, 0x06, 0x17, 0xf3, 0x5e, 0xec, 0xf6, 0x04, 0x18, 0xf7, 0xe9, ,
  0xf7, 0xb7, 0xff, 0xfc, 0x41, 0xfc, 0xf5, 0x08, 0xfd, 0xef, 0x02, 0xfd, ,
  0x08, 0xfb, 0x06, 0x03, 0xf2, 0x04, 0x09, 0xe5, 0x7f, 0x06, 0xff, 0xf9, ,
  0x24, 0x0a, 0xfc, 0x1e, 0x28, 0x40, 0x18, 0x03, 0xf6, 0xe6, 0xfe, 0x44, ,
  0xec, 0xce, 0x00, 0x03, 0xec, 0x7f, 0x2c, 0x15, 0x24, 0x11, 0xe2, 0xe0, ,
  0x07, 0xa9, 0x0e, 0xa3, 0xfd, 0x0a, 0x0f, 0xb6, 0xd3, 0x26, 0xf8, 0xf2, ,
  0x01, 0xea, 0xe0, 0x3a, 0xf6, 0xf9, 0x12, 0x9c, 0x32, 0x1d, 0xf8, 0xcd, ,
  0x09, 0xd7, 0x23, 0x04, 0x07, 0xac, 0x65, 0xfb, 0x0f, 0x19, 0x06, 0x22, ,
  0xe8, 0x36, 0xec, 0x0d, 0x15, 0x7f, 0xe7, 0x02, 0x33, 0x45, 0xd5, 0xea, ,
  0xe4, 0xc0, 0xfb, 0xc5, 0xf5, 0x01, 0x1b, 0xbd, 0x0c, 0xe3, 0xb3, 0x03, ,
  0x26, 0xec, 0x04, 0xeb, 0xc8, 0xf4, 0x12, 0xe7, 0x9e, 0x2c, 0x12, 0x13, ,
  0xfd, 0x07, 0x24, 0x22, 0x4d, 0x3d, 0x4f, 0x02, 0x06, 0x12, 0x12, 0x08, ,
  0xfd, 0xd9, 0xfe, 0xf8, 0x02, 0x23, 0x19, 0x1c, 0x03, 0x10, 0xfd, 0xde, ,
  0xfb, 0xda, 0xfc, 0xd3, 0xfa, 0x0e, 0x15, 0x12, 0x03, 0xf0, 0xe7, 0x11, ,
  0xec, 0x11, 0x01, 0xf7, 0x04, 0xe2, 0x07, 0x02, 0x81, 0x07, 0x02, 0x09, ,
  0x25, 0xf4, 0x09, 0xff, 0xea, 0xd8, 0x16, 0xff, 0xfb, 0x3f, 0x1e, 0xda, ,
  0x0f, 0x19, 0x05, 0x03, 0x20, 0x1d, 0x03, 0x06, 0xe8, 0x11, 0xf6, 0xe5, ,
  0xe7, 0x00, 0x18, 0xfc, 0x28, 0x05, 0xea, 0x4c, 0x39, 0xda, 0xd9, 0x21, ,
  0xf3, 0xff, 0x16, 0xe3, 0x15, 0xd7, 0x31, 0x35, 0x81, 0xf2, 0xf8, 0x1c, ,
  0x40, 0x0b, 0xde, 0x14, 0xd8, 0x28, 0x09, 0x07, 0xfd, 0x18, 0xf4, 0xcf, ,
  0x34, 0xe0, 0xd5, 0xf0, 0xe2, 0xf1, 0x09, 0x12, 0xef, 0xdb, 0xff, 0xe6, ,
  0x10, 0x2c, 0x0c, 0xe6, 0x60, 0xed, 0xd6, 0x64, 0x1c, 0xa6, 0x08, 0x1b, ,
  0xc2, 0x21, 0xff, 0xd5, 0x77, 0x1d, 0x28, 0x34, 0x81, 0xf7, 0x0d, 0xf9, ,
  0x3f, 0x05, 0xe1, 0xe6, 0xbd, 0xcd, 0xe0, 0x1e, 0x19, 0x1c, 0xe9, 0xf2, ,
  0x1d, 0x60, 0xa1, 0x08, 0x10, 0xda, 0xde, 0x1b, 0x07, 0xf7, 0xe7, 0xf5, ,
  0xe1, 0x3f, 0x07, 0x0a, 0x17, 0xf2, 0xbf, 0xcc, 0x11, 0xcd, 0x12, 0xd7, ,
  0xe3, 0x0d, 0x0c, 0xf6, 0x51, 0xf7, 0xe3, 0x30, 0xfc, 0xeb, 0xfb, 0xfb, ,
  0x05, 0x7f, 0xb4, 0xbe, 0xf4, 0x50, 0xe0, 0x06, 0x10, 0xd8, 0xd0, 0x1a, ,
  0x03, 0x14, 0x81, 0xd9, 0x12, 0x9e, 0xf0, 0x25, 0x28, 0xdb, 0x26, 0xf7, ,
  0x18, 0x29, 0xe8, 0x10, 0xdf, 0xf6, 0xf2, 0xb0, 0x04, 0x04, 0x44, 0xd3, ,
  0xb3, 0x06, 0x05, 0x1d, 0x2d, 0x19, 0xf6, 0xfa, 0x40, 0xfb, 0xf3, 0xfa, ,
  0xe8, 0xc1, 0x08, 0xd9, 0xff, 0xe9, 0xdb, 0xe9, 0x00, 0x00, 0x06, 0x00, ,
  0x08, 0x00, 0x04, 0x00, 0x06, 0x00, 0x00, 0x00, 0x04, 0x00, 0x00, 0x00, ,
  0x10, 0x01, 0x00, 0x00, 0x88, 0xcb, 0xff, 0xff, 0x8a, 0x01, 0x00, 0x00, ,
  0x1a, 0xcc, 0xff, 0xff, 0xec, 0xcd, 0xff, 0xff, 0xcf, 0xd3, 0xff, 0xff, ,
  0xd8, 0x97, 0x00, 0x00, 0x28, 0xda, 0xff, 0xff, 0x22, 0x06, 0x00, 0x00, ,
  0xbd, 0xf1, 0xff, 0xff, 0x1b, 0xfe, 0xff, 0xff, 0x4d, 0x8d, 0xff, 0xff, ,
  0xe6, 0x2e, 0x00, 0x00, 0x67, 0xff, 0xff, 0xff, 0xb4, 0xcc, 0xff, 0xff, ,
  0x29, 0xd9, 0xff, 0xff, 0x6c, 0x41, 0x00, 0x00, 0xfd, 0x2f, 0x00, 0x00, ,
  0x99, 0x08, 0x00, 0x00, 0x46, 0xc9, 0xff, 0xff, 0x43, 0x13, 0x00, 0x00, ,
  0x43, 0xe9, 0xff, 0xff, 0xed, 0xcf, 0xff, 0xff, 0x6a, 0xc8, 0xff, 0xff, ,
  0x17, 0xd9, 0xff, 0xff, 0x3e, 0x1a, 0x00, 0x00, 0x5e, 0x1e, 0x00, 0x00, ,
  0x93, 0xf3, 0xff, 0xff, 0x8b, 0xe4, 0xff, 0xff, 0xd0, 0x01, 0x00, 0x00, ,
  0x9d, 0xf4, 0xff, 0xff, 0x0f, 0x1d, 0x00, 0x00, 0x52, 0x4a, 0x00, 0x00, ,
  0xdd, 0x3c, 0x00, 0x00, 0x13, 0x24, 0x00, 0x00, 0x57, 0x4a, 0x00, 0x00, ,
  0xbf, 0xf4, 0xff, 0xff, 0xa7, 0x10, 0x00, 0x00, 0x5e, 0x32, 0x00, 0x00, ,
  0xa2, 0xbb, 0xff, 0xff, 0xda, 0x3d, 0x00, 0x00, 0x67, 0xf6, 0xff, 0xff, ,
  0x7f, 0xe3, 0xff, 0xff, 0x45, 0xfd, 0xff, 0xff, 0xf6, 0x25, 0x00, 0x00, ,
  0xbe, 0xe6, 0xff, 0xff, 0xc4, 0x24, 0x00, 0x00, 0x73, 0xe1, 0xff, 0xff, ,
  0xa1, 0xfd, 0xff, 0xff, 0x48, 0xf3, 0xff, 0xff, 0x08, 0x28, 0x00, 0x00, ,
  0x9e, 0x32, 0x00, 0x00, 0x92, 0x5f, 0x00, 0x00, 0x5c, 0x48, 0x00, 0x00, ,
  0x40, 0xf1, 0xff, 0xff, 0xb7, 0xb4, 0xff, 0xff, 0x29, 0x1a, 0x00, 0x00, ,
  0x5c, 0xcd, 0xff, 0xff, 0xc7, 0x5a, 0x00, 0x00, 0x1a, 0xc3, 0xff, 0xff, ,
  0x39, 0x1d, 0x00, 0x00, 0x37, 0xb7, 0xff, 0xff, 0xd0, 0xf1, 0xff, 0xff, ,
  0xb7, 0xee, 0xff, 0xff, 0xd9, 0x38, 0x00, 0x00, 0x69, 0x18, 0x00, 0x00, ,
  0x38, 0x4f, 0x00, 0x00, 0x23, 0x1c, 0x00, 0x00, 0xb4, 0x21, 0x00, 0x00, ,
  0xa4, 0xde, 0xff, 0xff, 0xa8, 0xde, 0xff, 0xff, 0x0f, 0x00, 0x00, 0x00, ,
  0x4d, 0x4c, 0x49, 0x52, 0x20, 0x43, 0x6f, 0x6e, 0x76, 0x65, 0x72, 0x74, ,
  0x65, 0x64, 0x2e, 0x00, 0x01, 0x00, 0x00, 0x00, 0x14, 0x00, 0x00, 0x00, ,
  0x00, 0x00, 0x0e, 0x00, 0x18, 0x00, 0x14, 0x00, 0x10, 0x00, 0x0c, 0x00, ,
  0x08, 0x00, 0x04, 0x00, 0x0e, 0x00, 0x00, 0x00, 0x14, 0x00, 0x00, 0x00, ,
  0x1c, 0x00, 0x00, 0x00, 0x04, 0x02, 0x00, 0x00, 0x08, 0x02, 0x00, 0x00, ,
  0x0c, 0x02, 0x00, 0x00, 0x04, 0x00, 0x00, 0x00, 0x6d, 0x61, 0x69, 0x6e, ,
  0x00, 0x00, 0x00, 0x00, 0x08, 0x00, 0x00, 0x00, 0xcc, 0x01, 0x00, 0x00, ,
  0x7c, 0x01, 0x00, 0x00, 0x30, 0x01, 0x00, 0x00, 0xe4, 0x00, 0x00, 0x00, ,
  0xa8, 0x00, 0x00, 0x00, 0x6c, 0x00, 0x00, 0x00, 0x34, 0x00, 0x00, 0x00, ,
  0x10, 0x00, 0x00, 0x00, 0x00, 0x00, 0x0a, 0x00, 0x10, 0x00, 0x0c, 0x00, ,
  0x08, 0x00, 0x04, 0x00, 0x0a, 0x00, 0x00, 0x00, 0x0c, 0x00, 0x00, 0x00, ,
  0x10, 0x00, 0x00, 0x00, 0x02, 0x00, 0x00, 0x00, 0x01, 0x00, 0x00, 0x00, ,
  0x14, 0x00, 0x00, 0x00, 0x01, 0x00, 0x00, 0x00, 0x13, 0x00, 0x00, 0x00, ,
  0x22, 0xff, 0xff, 0xff, 0x14, 0x00, 0x00, 0x00, 0x00, 0x00, 0x00, 0x08, ,
  0x10, 0x00, 0x00, 0x00, 0x14, 0x00, 0x00, 0x00, 0x01, 0x00, 0x00, 0x00, ,
  0x64, 0xdf, 0xff, 0xff, 0x01, 0x00, 0x00, 0x00, 0x13, 0x00, 0x00, 0x00, ,
  0x03, 0x00, 0x00, 0x00, 0x12, 0x00, 0x00, 0x00, 0x02, 0x00, 0x00, 0x00, ,
  0x01, 0x00, 0x00, 0x00, 0x56, 0xff, 0xff, 0xff, 0x14, 0x00, 0x00, 0x00, ,
  0x00, 0x00, 0x00, 0x08, 0x14, 0x00, 0x00, 0x00, 0x18, 0x00, 0x00, 0x00, ,
  0x01, 0x00, 0x00, 0x00, 0xfe, 0xfe, 0xff, 0xff, 0x00, 0x00, 0x00, 0x01, ,
  0x01, 0x00, 0x00, 0x00, 0x12, 0x00, 0x00, 0x00, 0x03, 0x00, 0x00, 0x00, ,
  0x11, 0x00, 0x00, 0x00, 0x04, 0x00, 0x00, 0x00, 0x03, 0x00, 0x00, 0x00, ,
  0x8e, 0xff, 0xff, 0xff, 0x14, 0x00, 0x00, 0x00, 0x00, 0x00, 0x00, 0x08, ,
  0x14, 0x00, 0x00, 0x00, 0x18, 0x00, 0x00, 0x00, 0x01, 0x00, 0x00, 0x00, ,
  0x36, 0xff, 0xff, 0xff, 0x00, 0x00, 0x00, 0x01, 0x01, 0x00, 0x00, 0x00, ,
  0x11, 0x00, 0x00, 0x00, 0x03, 0x00, 0x00, 0x00, 0x10, 0x00, 0x00, 0x00, ,
  0x06, 0x00, 0x00, 0x00, 0x05, 0x00, 0x00, 0x00, 0xc6, 0xff, 0xff, 0xff, ,
  0x14, 0x00, 0x00, 0x00, 0x00, 0x00, 0x00, 0x08, 0x14, 0x00, 0x00, 0x00, ,
  0x18, 0x00, 0x00, 0x00, 0x01, 0x00, 0x00, 0x00, 0x6e, 0xff, 0xff, 0xff, ,
  0x00, 0x00, 0x00, 0x01, 0x01, 0x00, 0x00, 0x00, 0x10, 0x00, 0x00, 0x00, ,
  0x03, 0x00, 0x00, 0x00, 0x0f, 0x00, 0x00, 0x00, 0x08, 0x00, 0x00, 0x00, ,
  0x07, 0x00, 0x00, 0x00, 0x00, 0x00, 0x0e, 0x00, 0x18, 0x00, 0x14, 0x00, ,
  0x10, 0x00, 0x0c, 0x00, 0x0b, 0x00, 0x04, 0x00, 0x0e, 0x00, 0x00, 0x00, ,
  0x14, 0x00, 0x00, 0x00, 0x00, 0x00, 0x00, 0x08, 0x14, 0x00, 0x00, 0x00, ,
  0x18, 0x00, 0x00, 0x00, 0x01, 0x00, 0x00, 0x00, 0xb6, 0xff, 0xff, 0xff, ,
  0x00, 0x00, 0x00, 0x01, 0x01, 0x00, 0x00, 0x00, 0x0f, 0x00, 0x00, 0x00, ,
  0x03, 0x00, 0x00, 0x00, 0x0e, 0x00, 0x00, 0x00, 0x0a, 0x00, 0x00, 0x00, ,
  0x09, 0x00, 0x00, 0x00, 0x00, 0x00, 0x0e, 0x00, 0x1a, 0x00, 0x14, 0x00, ,
  0x10, 0x00, 0x0c, 0x00, 0x0b, 0x00, 0x04, 0x00, 0x0e, 0x00, 0x00, 0x00, ,
  0x1c, 0x00, 0x00, 0x00, 0x00, 0x00, 0x00, 0x08, 0x1c, 0x00, 0x00, 0x00, ,
  0x20, 0x00, 0x00, 0x00, 0x01, 0x00, 0x00, 0x00, 0x00, 0x00, 0x06, 0x00, ,
  0x08, 0x00, 0x07, 0x00, 0x06, 0x00, 0x00, 0x00, 0x00, 0x00, 0x00, 0x01, ,
  0x01, 0x00, 0x00, 0x00, 0x0e, 0x00, 0x00, 0x00, 0x03, 0x00, 0x00, 0x00, ,
  0x0d, 0x00, 0x00, 0x00, 0x0c, 0x00, 0x00, 0x00, 0x0b, 0x00, 0x00, 0x00, ,
  0x00, 0x00, 0x0a, 0x00, 0x0c, 0x00, 0x00, 0x00, 0x08, 0x00, 0x04, 0x00, ,
  0x0a, 0x00, 0x00, 0x00, 0x08, 0x00, 0x00, 0x00, 0x0c, 0x00, 0x00, 0x00, ,
  0x01, 0x00, 0x00, 0x00, 0x0d, 0x00, 0x00, 0x00, 0x01, 0x00, 0x00, 0x00, ,
  0x00, 0x00, 0x00, 0x00, 0x01, 0x00, 0x00, 0x00, 0x14, 0x00, 0x00, 0x00, ,
  0x01, 0x00, 0x00, 0x00, 0x00, 0x00, 0x00, 0x00, 0x15, 0x00, 0x00, 0x00, ,
  0xdc, 0x1e, 0x00, 0x00, 0x34, 0x1b, 0x00, 0x00, 0x94, 0x17, 0x00, 0x00, ,
  0x00, 0x15, 0x00, 0x00, 0x64, 0x12, 0x00, 0x00, 0xf0, 0x10, 0x00, 0x00, ,
  0x74, 0x0f, 0x00, 0x00, 0xc0, 0x0e, 0x00, 0x00, 0x04, 0x0e, 0x00, 0x00, ,
  0x90, 0x0c, 0x00, 0x00, 0x14, 0x0b, 0x00, 0x00, 0x80, 0x08, 0x00, 0x00, ,
  0xe4, 0x05, 0x00, 0x00, 0x70, 0x05, 0x00, 0x00, 0xa4, 0x04, 0x00, 0x00, ,
  0xa8, 0x03, 0x00, 0x00, 0x94, 0x02, 0x00, 0x00, 0xe0, 0x01, 0x00, 0x00, ,
  0xe4, 0x00, 0x00, 0x00, 0x60, 0x00, 0x00, 0x00, 0x04, 0x00, 0x00, 0x00, ,
  0x8e, 0xe1, 0xff, 0xff, 0x00, 0x00, 0x00, 0x01, 0x14, 0x00, 0x00, 0x00, ,
  0x1c, 0x00, 0x00, 0x00, 0x1c, 0x00, 0x00, 0x00, 0x15, 0x00, 0x00, 0x00, ,
  0x34, 0x00, 0x00, 0x00, 0x02, 0x00, 0x00, 0x00, 0xff, 0xff, 0xff, 0xff, ,
  0x44, 0x00, 0x00, 0x00, 0x78, 0xe1, 0xff, 0xff, 0x1b, 0x00, 0x00, 0x00, ,
  0x53, 0x74, 0x61, 0x74, 0x65, 0x66, 0x75, 0x6c, 0x50, 0x61, 0x72, 0x74, ,
  0x69, 0x74, 0x69, 0x6f, 0x6e, 0x65, 0x64, 0x43, 0x61, 0x6c, 0x6c, 0x5f, ,
  0x31, 0x3a, 0x30, 0x00, 0x02, 0x00, 0x00, 0x00, 0x01, 0x00, 0x00, 0x00, ,
  0x44, 0x00, 0x00, 0x00, 0x1e, 0xfb, 0xff, 0xff, 0x00, 0x00, 0x00, 0x01, ,
  0x18, 0x00, 0x00, 0x00, 0x20, 0x00, 0x00, 0x00, 0x40, 0x00, 0x00, 0x00, ,
  0x14, 0x00, 0x00, 0x00, 0x00, 0x00, 0x00, 0x09, 0x58, 0x00, 0x00, 0x00, ,
  0x02, 0x00, 0x00, 0x00, 0xff, 0xff, 0xff, 0xff, 0x44, 0x00, 0x00, 0x00, ,
  0x84, 0xe5, 0xff, 0xff, 0x08, 0x00, 0x00, 0x00, 0x14, 0x00, 0x00, 0x00, ,
  0x01, 0x00, 0x00, 0x00, 0xf0, 0xff, 0xff, 0xff, 0xff, 0xff, 0xff, 0xff, ,
  0x00, 0x00, 0x00, 0x00, 0x01, 0x00, 0x00, 0x00, 0x0a, 0xef, 0x0f, 0x3d, ,
  0x1c, 0x00, 0x00, 0x00, 0x53, 0x74, 0x61, 0x74, 0x65, 0x66, 0x75, 0x6c, ,
  0x50, 0x61, 0x72, 0x74, 0x69, 0x74, 0x69, 0x6f, 0x6e, 0x65, 0x64, 0x43, ,
  0x61, 0x6c, 0x6c, 0x5f, 0x31, 0x3a, 0x30, 0x31, 0x00, 0x00, 0x00, 0x00, ,
  0x02, 0x00, 0x00, 0x00, 0x01, 0x00, 0x00, 0x00, 0x44, 0x00, 0x00, 0x00, ,
  0x9e, 0xfb, 0xff, 0xff, 0x00, 0x00, 0x00, 0x01, 0x18, 0x00, 0x00, 0x00, ,
  0x20, 0x00, 0x00, 0x00, 0x3c, 0x00, 0x00, 0x00, 0x13, 0x00, 0x00, 0x00, ,
  0x00, 0x00, 0x00, 0x09, 0xd0, 0x00, 0x00, 0x00, 0x02, 0x00, 0x00, 0x00, ,
  0xff, 0xff, 0xff, 0xff, 0x30, 0x00, 0x00, 0x00, 0x04, 0xe6, 0xff, 0xff, ,
  0x08, 0x00, 0x00, 0x00, 0x10, 0x00, 0x00, 0x00, 0x01, 0x00, 0x00, 0x00, ,
  0x80, 0xff, 0xff, 0xff, 0xff, 0xff, 0xff, 0xff, 0x01, 0x00, 0x00, 0x00, ,
  0x22, 0xbd, 0x90, 0x3c, 0x9a, 0x00, 0x00, 0x00, 0x61, 0x75, 0x74, 0x6f, ,
  0x65, 0x6e, 0x63, 0x6f, 0x64, 0x65, 0x72, 0x5f, 0x31, 0x2f, 0x62, 0x6e, ,
  0x33, 0x5f, 0x31, 0x2f, 0x62, 0x61, 0x74, 0x63, 0x68, 0x6e, 0x6f, 0x72, ,
  0x6d, 0x2f, 0x6d, 0x75, 0x6c, 0x5f, 0x31, 0x3b, 0x61, 0x75, 0x74, 0x6f, ,
  0x65, 0x6e, 0x63, 0x6f, 0x64, 0x65, 0x72, 0x5f, 0x31, 0x2f, 0x62, 0x6e, ,
  0x33, 0x5f, 0x31, 0x2f, 0x62, 0x61, 0x74, 0x63, 0x68, 0x6e, 0x6f, 0x72, ,
  0x6d, 0x2f, 0x61, 0x64, 0x64, 0x5f, 0x31, 0x3b, 0x61, 0x75, 0x74, 0x6f, ,
  0x65, 0x6e, 0x63, 0x6f, 0x64, 0x65, 0x72, 0x5f, 0x31, 0x2f, 0x64, 0x65, ,
  0x63, 0x32, 0x5f, 0x31, 0x2f, 0x4d, 0x61, 0x74, 0x4d, 0x75, 0x6c, 0x3b, ,
  0x61, 0x75, 0x74, 0x6f, 0x65, 0x6e, 0x63, 0x6f, 0x64, 0x65, 0x72, 0x5f, ,
  0x31, 0x2f, 0x64, 0x65, 0x63, 0x32, 0x5f, 0x31, 0x2f, 0x52, 0x65, 0x6c, ,
  0x75, 0x3b, 0x61, 0x75, 0x74, 0x6f, 0x65, 0x6e, 0x63, 0x6f, 0x64, 0x65, ,
  0x72, 0x5f, 0x31, 0x2f, 0x64, 0x65, 0x63, 0x32, 0x5f, 0x31, 0x2f, 0x42, ,
  0x69, 0x61, 0x73, 0x41, 0x64, 0x64, 0x00, 0x00, 0x02, 0x00, 0x00, 0x00, ,
  0x01, 0x00, 0x00, 0x00, 0x30, 0x00, 0x00, 0x00, 0x96, 0xfc, 0xff, 0xff, ,
  0x00, 0x00, 0x00, 0x01, 0x18, 0x00, 0x00, 0x00, 0x20, 0x00, 0x00, 0x00, ,
  0x3c, 0x00, 0x00, 0x00, 0x12, 0x00, 0x00, 0x00, 0x00, 0x00, 0x00, 0x09, ,
  0x88, 0x00, 0x00, 0x00, 0x02, 0x00, 0x00, 0x00, 0xff, 0xff, 0xff, 0xff, ,
  0x18, 0x00, 0x00, 0x00, 0xfc, 0xe6, 0xff, 0xff, 0x08, 0x00, 0x00, 0x00, ,
  0x10, 0x00, 0x00, 0x00, 0x01, 0x00, 0x00, 0x00, 0x80, 0xff, 0xff, 0xff, ,
  0xff, 0xff, 0xff, 0xff, 0x01, 0x00, 0x00, 0x00, 0x72, 0x23, 0xb7, 0x3c, ,
  0x52, 0x00, 0x00, 0x00, 0x61, 0x75, 0x74, 0x6f, 0x65, 0x6e, 0x63, 0x6f, ,
  0x64, 0x65, 0x72, 0x5f, 0x31, 0x2f, 0x64, 0x65, 0x63, 0x31, 0x5f, 0x31, ,
  0x2f, 0x4d, 0x61, 0x74, 0x4d, 0x75, 0x6c, 0x3b, 0x61, 0x75, 0x74, 0x6f, ,
  0x65, 0x6e, 0x63, 0x6f, 0x64, 0x65, 0x72, 0x5f, 0x31, 0x2f, 0x64, 0x65, ,
  0x63, 0x31, 0x5f, 0x31, 0x2f, 0x52, 0x65, 0x6c, 0x75, 0x3b, 0x61, 0x75, ,
  0x74, 0x6f, 0x65, 0x6e, 0x63, 0x6f, 0x64, 0x65, 0x72, 0x5f, 0x31, 0x2f, ,
  0x64, 0x65, 0x63, 0x31, 0x5f, 0x31, 0x2f, 0x42, 0x69, 0x61, 0x73, 0x41, ,
  0x64, 0x64, 0x00, 0x00, 0x02, 0x00, 0x00, 0x00, 0x01, 0x00, 0x00, 0x00, ,
  0x18, 0x00, 0x00, 0x00, 0x46, 0xfd, 0xff, 0xff, 0x00, 0x00, 0x00, 0x01, ,
  0x18, 0x00, 0x00, 0x00, 0x20, 0x00, 0x00, 0x00, 0x40, 0x00, 0x00, 0x00, ,
  0x11, 0x00, 0x00, 0x00, 0x00, 0x00, 0x00, 0x09, 0xe8, 0x00, 0x00, 0x00, ,
  0x02, 0x00, 0x00, 0x00, 0xff, 0xff, 0xff, 0xff, 0x08, 0x00, 0x00, 0x00, ,
  0xac, 0xe7, 0xff, 0xff, 0x08, 0x00, 0x00, 0x00, 0x14, 0x00, 0x00, 0x00, ,
  0x01, 0x00, 0x00, 0x00, 0x80, 0xff, 0xff, 0xff, 0xff, 0xff, 0xff, 0xff, ,
  0x00, 0x00, 0x00, 0x00, 0x01, 0x00, 0x00, 0x00, 0x5a, 0x98, 0xf7, 0x3c, ,
  0xac, 0x00, 0x00, 0x00, 0x61, 0x75, 0x74, 0x6f, 0x65, 0x6e, 0x63, 0x6f, ,
  0x64, 0x65, 0x72, 0x5f, 0x31, 0x2f, 0x62, 0x6e, 0x32, 0x5f, 0x31, 0x2f, ,
  0x62, 0x61, 0x74, 0x63, 0x68, 0x6e, 0x6f, 0x72, 0x6d, 0x2f, 0x6d, 0x75, ,
  0x6c, 0x5f, 0x31, 0x3b, 0x61, 0x75, 0x74, 0x6f, 0x65, 0x6e, 0x63, 0x6f, ,
  0x64, 0x65, 0x72, 0x5f, 0x31, 0x2f, 0x62, 0x6e, 0x32, 0x5f, 0x31, 0x2f, ,
  0x62, 0x61, 0x74, 0x63, 0x68, 0x6e, 0x6f, 0x72, 0x6d, 0x2f, 0x61, 0x64, ,
  0x64, 0x5f, 0x31, 0x3b, 0x61, 0x75, 0x74, 0x6f, 0x65, 0x6e, 0x63, 0x6f, ,
  0x64, 0x65, 0x72, 0x5f, 0x31, 0x2f, 0x62, 0x6f, 0x74, 0x74, 0x6c, 0x65, ,
  0x6e, 0x65, 0x63, 0x6b, 0x5f, 0x31, 0x2f, 0x4d, 0x61, 0x74, 0x4d, 0x75, ,
  0x6c, 0x3b, 0x61, 0x75, 0x74, 0x6f, 0x65, 0x6e, 0x63, 0x6f, 0x64, 0x65, ,
  0x72, 0x5f, 0x31, 0x2f, 0x62, 0x6f, 0x74, 0x74, 0x6c, 0x65, 0x6e, 0x65, ,
  0x63, 0x6b, 0x5f, 0x31, 0x2f, 0x52, 0x65, 0x6c, 0x75, 0x3b, 0x61, 0x75, ,
  0x74, 0x6f, 0x65, 0x6e, 0x63, 0x6f, 0x64, 0x65, 0x72, 0x5f, 0x31, 0x2f, ,
  0x62, 0x6f, 0x74, 0x74, 0x6c, 0x65, 0x6e, 0x65, 0x63, 0x6b, 0x5f, 0x31, ,
  0x2f, 0x42, 0x69, 0x61, 0x73, 0x41, 0x64, 0x64, 0x00, 0x00, 0x00, 0x00, ,
  0x02, 0x00, 0x00, 0x00, 0x01, 0x00, 0x00, 0x00, 0x08, 0x00, 0x00, 0x00, ,
  0x56, 0xfe, 0xff, 0xff, 0x00, 0x00, 0x00, 0x01, 0x18, 0x00, 0x00, 0x00, ,
  0x20, 0x00, 0x00, 0x00, 0x3c, 0x00, 0x00, 0x00, 0x10, 0x00, 0x00, 0x00, ,
  0x00, 0x00, 0x00, 0x09, 0xd0, 0x00, 0x00, 0x00, 0x02, 0x00, 0x00, 0x00, ,
  0xff, 0xff, 0xff, 0xff, 0x18, 0x00, 0x00, 0x00, 0xbc, 0xe8, 0xff, 0xff, ,
  0x08, 0x00, 0x00, 0x00, 0x10, 0x00, 0x00, 0x00, 0x01, 0x00, 0x00, 0x00, ,
  0x80, 0xff, 0xff, 0xff, 0xff, 0xff, 0xff, 0xff, 0x01, 0x00, 0x00, 0x00, ,
  0x65, 0x61, 0xe1, 0x3c, 0x9a, 0x00, 0x00, 0x00, 0x61, 0x75, 0x74, 0x6f, ,
  0x65, 0x6e, 0x63, 0x6f, 0x64, 0x65, 0x72, 0x5f, 0x31, 0x2f, 0x62, 0x6e, ,
  0x31, 0x5f, 0x31, 0x2f, 0x62, 0x61, 0x74, 0x63, 0x68, 0x6e, 0x6f, 0x72, ,
  0x6d, 0x2f, 0x6d, 0x75, 0x6c, 0x5f, 0x31, 0x3b, 0x61, 0x75, 0x74, 0x6f, ,
  0x65, 0x6e, 0x63, 0x6f, 0x64, 0x65, 0x72, 0x5f, 0x31, 0x2f, 0x62, 0x6e, ,
  0x31, 0x5f, 0x31, 0x2f, 0x62, 0x61, 0x74, 0x63, 0x68, 0x6e, 0x6f, 0x72, ,
  0x6d, 0x2f, 0x61, 0x64, 0x64, 0x5f, 0x31, 0x3b, 0x61, 0x75, 0x74, 0x6f, ,
  0x65, 0x6e, 0x63, 0x6f, 0x64, 0x65, 0x72, 0x5f, 0x31, 0x2f, 0x65, 0x6e, ,
  0x63, 0x32, 0x5f, 0x31, 0x2f, 0x4d, 0x61, 0x74, 0x4d, 0x75, 0x6c, 0x3b, ,
  0x61, 0x75, 0x74, 0x6f, 0x65, 0x6e, 0x63, 0x6f, 0x64, 0x65, 0x72, 0x5f, ,
  0x31, 0x2f, 0x65, 0x6e, 0x63, 0x32, 0x5f, 0x31, 0x2f, 0x52, 0x65, 0x6c, ,
  0x75, 0x3b, 0x61, 0x75, 0x74, 0x6f, 0x65, 0x6e, 0x63, 0x6f, 0x64, 0x65, ,
  0x72, 0x5f, 0x31, 0x2f, 0x65, 0x6e, 0x63, 0x32, 0x5f, 0x31, 0x2f, 0x42, ,
  0x69, 0x61, 0x73, 0x41, 0x64, 0x64, 0x00, 0x00, 0x02, 0x00, 0x00, 0x00, ,
  0x01, 0x00, 0x00, 0x00, 0x18, 0x00, 0x00, 0x00, 0x4e, 0xff, 0xff, 0xff, ,
  0x00, 0x00, 0x00, 0x01, 0x18, 0x00, 0x00, 0x00, 0x20, 0x00, 0x00, 0x00, ,
  0x3c, 0x00, 0x00, 0x00, 0x0f, 0x00, 0x00, 0x00, 0x00, 0x00, 0x00, 0x09, ,
  0x88, 0x00, 0x00, 0x00, 0x02, 0x00, 0x00, 0x00, 0xff, 0xff, 0xff, 0xff, ,
  0x30, 0x00, 0x00, 0x00, 0xb4, 0xe9, 0xff, 0xff, 0x08, 0x00, 0x00, 0x00, ,
  0x10, 0x00, 0x00, 0x00, 0x01, 0x00, 0x00, 0x00, 0x80, 0xff, 0xff, 0xff, ,
  0xff, 0xff, 0xff, 0xff, 0x01, 0x00, 0x00, 0x00, 0x99, 0xaf, 0x07, 0x3d, ,
  0x52, 0x00, 0x00, 0x00, 0x61, 0x75, 0x74, 0x6f, 0x65, 0x6e, 0x63, 0x6f, ,
  0x64, 0x65, 0x72, 0x5f, 0x31, 0x2f, 0x65, 0x6e, 0x63, 0x31, 0x5f, 0x31, ,
  0x2f, 0x4d, 0x61, 0x74, 0x4d, 0x75, 0x6c, 0x3b, 0x61, 0x75, 0x74, 0x6f, ,
  0x65, 0x6e, 0x63, 0x6f, 0x64, 0x65, 0x72, 0x5f, 0x31, 0x2f, 0x65, 0x6e, ,
  0x63, 0x31, 0x5f, 0x31, 0x2f, 0x52, 0x65, 0x6c, 0x75, 0x3b, 0x61, 0x75, ,
  0x74, 0x6f, 0x65, 0x6e, 0x63, 0x6f, 0x64, 0x65, 0x72, 0x5f, 0x31, 0x2f, ,
  0x65, 0x6e, 0x63, 0x31, 0x5f, 0x31, 0x2f, 0x42, 0x69, 0x61, 0x73, 0x41, ,
  0x64, 0x64, 0x00, 0x00, 0x02, 0x00, 0x00, 0x00, 0x01, 0x00, 0x00, 0x00, ,
  0x30, 0x00, 0x00, 0x00, 0x00, 0x00, 0x16, 0x00, 0x20, 0x00, 0x1c, 0x00, ,
  0x1b, 0x00, 0x14, 0x00, 0x10, 0x00, 0x0c, 0x00, 0x00, 0x00, 0x00, 0x00, ,
  0x08, 0x00, 0x07, 0x00, 0x16, 0x00, 0x00, 0x00, 0x00, 0x00, 0x00, 0x01, ,
  0x18, 0x00, 0x00, 0x00, 0x20, 0x00, 0x00, 0x00, 0x40, 0x00, 0x00, 0x00, ,
  0x0e, 0x00, 0x00, 0x00, 0x00, 0x00, 0x00, 0x09, 0x48, 0x00, 0x00, 0x00, ,
  0x02, 0x00, 0x00, 0x00, 0xff, 0xff, 0xff, 0xff, 0x44, 0x00, 0x00, 0x00, ,
  0x7c, 0xea, 0xff, 0xff, 0x08, 0x00, 0x00, 0x00, 0x14, 0x00, 0x00, 0x00, ,
  0x01, 0x00, 0x00, 0x00, 0xec, 0xff, 0xff, 0xff, 0xff, 0xff, 0xff, 0xff, ,
  0x00, 0x00, 0x00, 0x00, 0x01, 0x00, 0x00, 0x00, 0xb4, 0x81, 0x1f, 0x3d, ,
  0x0c, 0x00, 0x00, 0x00, 0x74, 0x66, 0x6c, 0x2e, 0x71, 0x75, 0x61, 0x6e, ,
  0x74, 0x69, 0x7a, 0x65, 0x00, 0x00, 0x00, 0x00, 0x02, 0x00, 0x00, 0x00, ,
  0x01, 0x00, 0x00, 0x00, 0x44, 0x00, 0x00, 0x00, 0xf2, 0xea, 0xff, 0xff, ,
  0x00, 0x00, 0x00, 0x01, 0x14, 0x00, 0x00, 0x00, 0x68, 0x02, 0x00, 0x00, ,
  0x0d, 0x00, 0x00, 0x00, 0x00, 0x00, 0x00, 0x09, 0x74, 0x02, 0x00, 0x00, ,
  0xdc, 0xea, 0xff, 0xff, 0x08, 0x00, 0x00, 0x00, 0x8c, 0x01, 0x00, 0x00, ,
  0x30, 0x00, 0x00, 0x00, 0x00, 0x00, 0x00, 0x00, 0x00, 0x00, 0x00, 0x00, ,
  0x00, 0x00, 0x00, 0x00, 0x00, 0x00, 0x00, 0x00, 0x00, 0x00, 0x00, 0x00, ,
  0x00, 0x00, 0x00, 0x00, 0x00, 0x00, 0x00, 0x00, 0x00, 0x00, 0x00, 0x00, ,
  0x00, 0x00, 0x00, 0x00, 0x00, 0x00, 0x00, 0x00, 0x00, 0x00, 0x00, 0x00, ,
  0x00, 0x00, 0x00, 0x00, 0x00, 0x00, 0x00, 0x00, 0x00, 0x00, 0x00, 0x00, ,
  0x00, 0x00, 0x00, 0x00, 0x00, 0x00, 0x00, 0x00, 0x00, 0x00, 0x00, 0x00, ,
  0x00, 0x00, 0x00, 0x00, 0x00, 0x00, 0x00, 0x00, 0x00, 0x00, 0x00, 0x00, ,
  0x00, 0x00, 0x00, 0x00, 0x00, 0x00, 0x00, 0x00, 0x00, 0x00, 0x00, 0x00, ,
  0x00, 0x00, 0x00, 0x00, 0x00, 0x00, 0x00, 0x00, 0x00, 0x00, 0x00, 0x00, ,
  0x00, 0x00, 0x00, 0x00, 0x00, 0x00, 0x00, 0x00, 0x00, 0x00, 0x00, 0x00, ,
  0x00, 0x00, 0x00, 0x00, 0x00, 0x00, 0x00, 0x00, 0x00, 0x00, 0x00, 0x00, ,
  0x00, 0x00, 0x00, 0x00, 0x00, 0x00, 0x00, 0x00, 0x00, 0x00, 0x00, 0x00, ,
  0x00, 0x00, 0x00, 0x00, 0x00, 0x00, 0x00, 0x00, 0x00, 0x00, 0x00, 0x00, ,
  0x00, 0x00, 0x00, 0x00, 0x00, 0x00, 0x00, 0x00, 0x00, 0x00, 0x00, 0x00, ,
  0x00, 0x00, 0x00, 0x00, 0x00, 0x00, 0x00, 0x00, 0x00, 0x00, 0x00, 0x00, ,
  0x00, 0x00, 0x00, 0x00, 0x00, 0x00, 0x00, 0x00, 0x00, 0x00, 0x00, 0x00, ,
  0x00, 0x00, 0x00, 0x00, 0x00, 0x00, 0x00, 0x00, 0x00, 0x00, 0x00, 0x00, ,
  0x00, 0x00, 0x00, 0x00, 0x00, 0x00, 0x00, 0x00, 0x00, 0x00, 0x00, 0x00, ,
  0x00, 0x00, 0x00, 0x00, 0x00, 0x00, 0x00, 0x00, 0x00, 0x00, 0x00, 0x00, ,
  0x00, 0x00, 0x00, 0x00, 0x00, 0x00, 0x00, 0x00, 0x00, 0x00, 0x00, 0x00, ,
  0x00, 0x00, 0x00, 0x00, 0x00, 0x00, 0x00, 0x00, 0x00, 0x00, 0x00, 0x00, ,
  0x00, 0x00, 0x00, 0x00, 0x00, 0x00, 0x00, 0x00, 0x00, 0x00, 0x00, 0x00, ,
  0x00, 0x00, 0x00, 0x00, 0x00, 0x00, 0x00, 0x00, 0x00, 0x00, 0x00, 0x00, ,
  0x00, 0x00, 0x00, 0x00, 0x00, 0x00, 0x00, 0x00, 0x00, 0x00, 0x00, 0x00, ,
  0x00, 0x00, 0x00, 0x00, 0x00, 0x00, 0x00, 0x00, 0x00, 0x00, 0x00, 0x00, ,
  0x00, 0x00, 0x00, 0x00, 0x00, 0x00, 0x00, 0x00, 0x00, 0x00, 0x00, 0x00, ,
  0x00, 0x00, 0x00, 0x00, 0x00, 0x00, 0x00, 0x00, 0x00, 0x00, 0x00, 0x00, ,
  0x00, 0x00, 0x00, 0x00, 0x00, 0x00, 0x00, 0x00, 0x00, 0x00, 0x00, 0x00, ,
  0x00, 0x00, 0x00, 0x00, 0x00, 0x00, 0x00, 0x00, 0x00, 0x00, 0x00, 0x00, ,
  0x00, 0x00, 0x00, 0x00, 0x00, 0x00, 0x00, 0x00, 0x00, 0x00, 0x00, 0x00, ,
  0x00, 0x00, 0x00, 0x00, 0x00, 0x00, 0x00, 0x00, 0x00, 0x00, 0x00, 0x00, ,
  0x00, 0x00, 0x00, 0x00, 0x00, 0x00, 0x00, 0x00, 0x00, 0x00, 0x00, 0x00, ,
  0x00, 0x00, 0x00, 0x00, 0x00, 0x00, 0x00, 0x00, 0x30, 0x00, 0x00, 0x00, ,
  0x9c, 0x49, 0x6e, 0x3b, 0xaa, 0x9b, 0x50, 0x3b, 0x56, 0x56, 0x61, 0x3b, ,
  0x20, 0x59, 0x56, 0x3b, 0xeb, 0xb6, 0x69, 0x3b, 0xba, 0xbf, 0x73, 0x3b, ,
  0x04, 0x7e, 0x96, 0x3b, 0xe0, 0x3b, 0xa4, 0x3b, 0x6c, 0xb9, 0x5b, 0x3b, ,
  0xda, 0x23, 0x92, 0x3b, 0x35, 0x26, 0x80, 0x3b, 0x9f, 0x55, 0x8a, 0x3b, ,
  0x4c, 0xcd, 0x5c, 0x3b, 0x4f, 0x09, 0x0f, 0x3b, 0xbd, 0x10, 0x1c, 0x3b, ,
  0xb0, 0xf6, 0xa3, 0x3b, 0x0d, 0x8f, 0x78, 0x3b, 0x83, 0x87, 0x58, 0x3b, ,
  0x15, 0xe9, 0x32, 0x3b, 0x04, 0x73, 0x38, 0x3b, 0x95, 0xa1, 0xd2, 0x3b, ,
  0xdc, 0x50, 0xa1, 0x3b, 0xb7, 0x2a, 0xcf, 0x3b, 0x79, 0x8f, 0x7e, 0x3b, ,
  0x25, 0xe8, 0x62, 0x3b, 0x27, 0x02, 0x8c, 0x3b, 0x04, 0x9c, 0x82, 0x3b, ,
  0xdf, 0x52, 0xaa, 0x3b, 0x85, 0x44, 0xa7, 0x3b, 0xbb, 0x72, 0x46, 0x3b, ,
  0xfd, 0x54, 0x5f, 0x3b, 0x71, 0xe3, 0x4e, 0x3b, 0x36, 0x15, 0x63, 0x3b, ,
  0xa6, 0x43, 0x19, 0x3b, 0xb3, 0x11, 0x80, 0x3b, 0x11, 0x4a, 0x79, 0x3b, ,
  0xbd, 0x39, 0x89, 0x3b, 0xab, 0x22, 0x9c, 0x3b, 0xc4, 0xad, 0x72, 0x3b, ,
  0xd4, 0x8b, 0x90, 0x3b, 0x26, 0xf1, 0x4c, 0x3b, 0xe5, 0x47, 0x6f, 0x3b, ,
  0x84, 0xa6, 0x4b, 0x3b, 0x8b, 0xd1, 0x7b, 0x3b, 0xae, 0xd6, 0x72, 0x3b, ,
  0x65, 0x1a, 0x50, 0x3b, 0x04, 0xfc, 0x4c, 0x3b, 0x58, 0x1c, 0xa4, 0x3b, ,
  0x13, 0x00, 0x00, 0x00, 0x74, 0x66, 0x6c, 0x2e, 0x70, 0x73, 0x65, 0x75, ,
  0x64, 0x6f, 0x5f, 0x71, 0x63, 0x6f, 0x6e, 0x73, 0x74, 0x31, 0x31, 0x00, ,
  0x02, 0x00, 0x00, 0x00, 0x30, 0x00, 0x00, 0x00, 0x44, 0x00, 0x00, 0x00, ,
  0x8a, 0xed, 0xff, 0xff, 0x00, 0x00, 0x00, 0x01, 0x14, 0x00, 0x00, 0x00, ,
  0x64, 0x02, 0x00, 0x00, 0x0c, 0x00, 0x00, 0x00, 0x00, 0x00, 0x00, 0x02, ,
  0x70, 0x02, 0x00, 0x00, 0x74, 0xed, 0xff, 0xff, 0x08, 0x00, 0x00, 0x00, ,
  0x88, 0x01, 0x00, 0x00, 0x30, 0x00, 0x00, 0x00, 0x00, 0x00, 0x00, 0x00, ,
  0x00, 0x00, 0x00, 0x00, 0x00, 0x00, 0x00, 0x00, 0x00, 0x00, 0x00, 0x00, ,
  0x00, 0x00, 0x00, 0x00, 0x00, 0x00, 0x00, 0x00, 0x00, 0x00, 0x00, 0x00, ,
  0x00, 0x00, 0x00, 0x00, 0x00, 0x00, 0x00, 0x00, 0x00, 0x00, 0x00, 0x00, ,
  0x00, 0x00, 0x00, 0x00, 0x00, 0x00, 0x00, 0x00, 0x00, 0x00, 0x00, 0x00, ,
  0x00, 0x00, 0x00, 0x00, 0x00, 0x00, 0x00, 0x00, 0x00, 0x00, 0x00, 0x00, ,
  0x00, 0x00, 0x00, 0x00, 0x00, 0x00, 0x00, 0x00, 0x00, 0x00, 0x00, 0x00, ,
  0x00, 0x00, 0x00, 0x00, 0x00, 0x00, 0x00, 0x00, 0x00, 0x00, 0x00, 0x00, ,
  0x00, 0x00, 0x00, 0x00, 0x00, 0x00, 0x00, 0x00, 0x00, 0x00, 0x00, 0x00, ,
  0x00, 0x00, 0x00, 0x00, 0x00, 0x00, 0x00, 0x00, 0x00, 0x00, 0x00, 0x00, ,
  0x00, 0x00, 0x00, 0x00, 0x00, 0x00, 0x00, 0x00, 0x00, 0x00, 0x00, 0x00, ,
  0x00, 0x00, 0x00, 0x00, 0x00, 0x00, 0x00, 0x00, 0x00, 0x00, 0x00, 0x00, ,
  0x00, 0x00, 0x00, 0x00, 0x00, 0x00, 0x00, 0x00, 0x00, 0x00, 0x00, 0x00, ,
  0x00, 0x00, 0x00, 0x00, 0x00, 0x00, 0x00, 0x00, 0x00, 0x00, 0x00, 0x00, ,
  0x00, 0x00, 0x00, 0x00, 0x00, 0x00, 0x00, 0x00, 0x00, 0x00, 0x00, 0x00, ,
  0x00, 0x00, 0x00, 0x00, 0x00, 0x00, 0x00, 0x00, 0x00, 0x00, 0x00, 0x00, ,
  0x00, 0x00, 0x00, 0x00, 0x00, 0x00, 0x00, 0x00, 0x00, 0x00, 0x00, 0x00, ,
  0x00, 0x00, 0x00, 0x00, 0x00, 0x00, 0x00, 0x00, 0x00, 0x00, 0x00, 0x00, ,
  0x00, 0x00, 0x00, 0x00, 0x00, 0x00, 0x00, 0x00, 0x00, 0x00, 0x00, 0x00, ,
  0x00, 0x00, 0x00, 0x00, 0x00, 0x00, 0x00, 0x00, 0x00, 0x00, 0x00, 0x00, ,
  0x00, 0x00, 0x00, 0x00, 0x00, 0x00, 0x00, 0x00, 0x00, 0x00, 0x00, 0x00, ,
  0x00, 0x00, 0x00, 0x00, 0x00, 0x00, 0x00, 0x00, 0x00, 0x00, 0x00, 0x00, ,
  0x00, 0x00, 0x00, 0x00, 0x00, 0x00, 0x00, 0x00, 0x00, 0x00, 0x00, 0x00, ,
  0x00, 0x00, 0x00, 0x00, 0x00, 0x00, 0x00, 0x00, 0x00, 0x00, 0x00, 0x00, ,
  0x00, 0x00, 0x00, 0x00, 0x00, 0x00, 0x00, 0x00, 0x00, 0x00, 0x00, 0x00, ,
  0x00, 0x00, 0x00, 0x00, 0x00, 0x00, 0x00, 0x00, 0x00, 0x00, 0x00, 0x00, ,
  0x00, 0x00, 0x00, 0x00, 0x00, 0x00, 0x00, 0x00, 0x00, 0x00, 0x00, 0x00, ,
  0x00, 0x00, 0x00, 0x00, 0x00, 0x00, 0x00, 0x00, 0x00, 0x00, 0x00, 0x00, ,
  0x00, 0x00, 0x00, 0x00, 0x00, 0x00, 0x00, 0x00, 0x00, 0x00, 0x00, 0x00, ,
  0x00, 0x00, 0x00, 0x00, 0x00, 0x00, 0x00, 0x00, 0x00, 0x00, 0x00, 0x00, ,
  0x00, 0x00, 0x00, 0x00, 0x00, 0x00, 0x00, 0x00, 0x00, 0x00, 0x00, 0x00, ,
  0x00, 0x00, 0x00, 0x00, 0x00, 0x00, 0x00, 0x00, 0x00, 0x00, 0x00, 0x00, ,
  0x00, 0x00, 0x00, 0x00, 0x00, 0x00, 0x00, 0x00, 0x30, 0x00, 0x00, 0x00, ,
  0x73, 0x78, 0x14, 0x39, 0x60, 0xfa, 0x01, 0x39, 0xca, 0x66, 0x0c, 0x39, ,
  0xf4, 0x8d, 0x05, 0x39, 0x05, 0x9f, 0x11, 0x39, 0x94, 0xdf, 0x17, 0x39, ,
  0x08, 0x89, 0x3b, 0x39, 0xcc, 0xa8, 0x4c, 0x39, 0x7d, 0xe7, 0x08, 0x39, ,
  0x9e, 0x1c, 0x36, 0x39, 0x51, 0xb1, 0x1f, 0x39, 0x88, 0x62, 0x2c, 0x39, ,
  0x61, 0x93, 0x09, 0x39, 0x81, 0x3e, 0xb2, 0x38, 0xef, 0x7a, 0xc2, 0x38, ,
  0x94, 0x52, 0x4c, 0x39, 0xc8, 0xde, 0x1a, 0x39, 0xdf, 0xe9, 0x06, 0x39, ,
  0xd3, 0xf2, 0xde, 0x38, 0xc6, 0xd9, 0xe5, 0x38, 0x13, 0x3d, 0x83, 0x39, ,
  0xe8, 0x05, 0x49, 0x39, 0x7e, 0x14, 0x81, 0x39, 0x15, 0x9c, 0x1e, 0x39, ,
  0x26, 0x61, 0x0d, 0x39, 0x8c, 0x78, 0x2e, 0x39, 0x26, 0xc2, 0x22, 0x39, ,
  0x88, 0x3f, 0x54, 0x39, 0x9b, 0x70, 0x50, 0x39, 0x9b, 0x4b, 0xf7, 0x38, ,
  0xf0, 0x26, 0x0b, 0x39, 0x15, 0xe8, 0x00, 0x39, 0x3a, 0x7d, 0x0d, 0x39, ,
  0x56, 0xfd, 0xbe, 0x38, 0xc2, 0x97, 0x1f, 0x39, 0x4e, 0x53, 0x1b, 0x39, ,
  0xc6, 0x00, 0x2b, 0x39, 0x47, 0x91, 0x42, 0x39, 0xe1, 0x34, 0x17, 0x39, ,
  0x2a, 0x20, 0x34, 0x39, 0x38, 0x63, 0xff, 0x38, 0xe3, 0x16, 0x15, 0x39, ,
  0x34, 0xc7, 0xfd, 0x38, 0xbb, 0xe6, 0x1c, 0x39, 0x5f, 0x4e, 0x17, 0x39, ,
  0xd4, 0xa9, 0x01, 0x39, 0xc3, 0x70, 0xff, 0x38, 0x81, 0x81, 0x4c, 0x39, ,
  0x13, 0x00, 0x00, 0x00, 0x74, 0x66, 0x6c, 0x2e, 0x70, 0x73, 0x65, 0x75, ,
  0x64, 0x6f, 0x5f, 0x71, 0x63, 0x6f, 0x6e, 0x73, 0x74, 0x31, 0x30, 0x00, ,
  0x01, 0x00, 0x00, 0x00, 0x30, 0x00, 0x00, 0x00, 0x1a, 0xf0, 0xff, 0xff, ,
  0x00, 0x00, 0x00, 0x01, 0x14, 0x00, 0x00, 0x00, 0x48, 0x01, 0x00, 0x00, ,
  0x0b, 0x00, 0x00, 0x00, 0x00, 0x00, 0x00, 0x09, 0x54, 0x01, 0x00, 0x00, ,
  0x04, 0xf0, 0xff, 0xff, 0x08, 0x00, 0x00, 0x00, 0xcc, 0x00, 0x00, 0x00, ,
  0x18, 0x00, 0x00, 0x00, 0x00, 0x00, 0x00, 0x00, 0x00, 0x00, 0x00, 0x00, ,
  0x00, 0x00, 0x00, 0x00, 0x00, 0x00, 0x00, 0x00, 0x00, 0x00, 0x00, 0x00, ,
  0x00, 0x00, 0x00, 0x00, 0x00, 0x00, 0x00, 0x00, 0x00, 0x00, 0x00, 0x00, ,
  0x00, 0x00, 0x00, 0x00, 0x00, 0x00, 0x00, 0x00, 0x00, 0x00, 0x00, 0x00, ,
  0x00, 0x00, 0x00, 0x00, 0x00, 0x00, 0x00, 0x00, 0x00, 0x00, 0x00, 0x00, ,
  0x00, 0x00, 0x00, 0x00, 0x00, 0x00, 0x00, 0x00, 0x00, 0x00, 0x00, 0x00, ,
  0x00, 0x00, 0x00, 0x00, 0x00, 0x00, 0x00, 0x00, 0x00, 0x00, 0x00, 0x00, ,
  0x00, 0x00, 0x00, 0x00, 0x00, 0x00, 0x00, 0x00, 0x00, 0x00, 0x00, 0x00, ,
  0x00, 0x00, 0x00, 0x00, 0x00, 0x00, 0x00, 0x00, 0x00, 0x00, 0x00, 0x00, ,
  0x00, 0x00, 0x00, 0x00, 0x00, 0x00, 0x00, 0x00, 0x00, 0x00, 0x00, 0x00, ,
  0x00, 0x00, 0x00, 0x00, 0x00, 0x00, 0x00, 0x00, 0x00, 0x00, 0x00, 0x00, ,
  0x00, 0x00, 0x00, 0x00, 0x00, 0x00, 0x00, 0x00, 0x00, 0x00, 0x00, 0x00, ,
  0x00, 0x00, 0x00, 0x00, 0x00, 0x00, 0x00, 0x00, 0x00, 0x00, 0x00, 0x00, ,
  0x00, 0x00, 0x00, 0x00, 0x00, 0x00, 0x00, 0x00, 0x00, 0x00, 0x00, 0x00, ,
  0x00, 0x00, 0x00, 0x00, 0x00, 0x00, 0x00, 0x00, 0x00, 0x00, 0x00, 0x00, ,
  0x00, 0x00, 0x00, 0x00, 0x00, 0x00, 0x00, 0x00, 0x00, 0x00, 0x00, 0x00, ,
  0x00, 0x00, 0x00, 0x00, 0x00, 0x00, 0x00, 0x00, 0x18, 0x00, 0x00, 0x00, ,
  0xa2, 0x7f, 0x29, 0x3b, 0xf7, 0xb2, 0x14, 0x3b, 0xfd, 0x0c, 0x63, 0x3b, ,
  0x05, 0x6e, 0x72, 0x3b, 0xcb, 0x27, 0x0f, 0x3b, 0xe0, 0x33, 0x90, 0x3b, ,
  0xcf, 0x17, 0x1f, 0x3b, 0x5a, 0x44, 0x17, 0x3b, 0xa5, 0xa8, 0x04, 0x3b, ,
  0x6b, 0x5b, 0x58, 0x3b, 0xa8, 0x30, 0x44, 0x3b, 0x3a, 0x40, 0x53, 0x3b, ,
  0x14, 0x3f, 0x02, 0x3c, 0xf5, 0x42, 0x4d, 0x3b, 0x18, 0x86, 0x3b, 0x3b, ,
  0x8c, 0x98, 0x21, 0x3b, 0x97, 0x6e, 0x97, 0x3b, 0x11, 0x39, 0x93, 0x3b, ,
  0x68, 0x69, 0x31, 0x3b, 0xa2, 0x66, 0x1a, 0x3b, 0x08, 0x19, 0x65, 0x3b, ,
  0x25, 0x26, 0x78, 0x3b, 0x12, 0x50, 0x84, 0x3b, 0x13, 0x11, 0x0e, 0x3b, ,
  0x12, 0x00, 0x00, 0x00, 0x74, 0x66, 0x6c, 0x2e, 0x70, 0x73, 0x65, 0x75, ,
  0x64, 0x6f, 0x5f, 0x71, 0x63, 0x6f, 0x6e, 0x73, 0x74, 0x39, 0x00, 0x00, ,
  0x02, 0x00, 0x00, 0x00, 0x18, 0x00, 0x00, 0x00, 0x30, 0x00, 0x00, 0x00, ,
  0x92, 0xf1, 0xff, 0xff, 0x00, 0x00, 0x00, 0x01, 0x14, 0x00, 0x00, 0x00, ,
  0x44, 0x01, 0x00, 0x00, 0x0a, 0x00, 0x00, 0x00, 0x00, 0x00, 0x00, 0x02, ,
  0x50, 0x01, 0x00, 0x00, 0x7c, 0xf1, 0xff, 0xff, 0x08, 0x00, 0x00, 0x00, ,
  0xc8, 0x00, 0x00, 0x00, 0x18, 0x00, 0x00, 0x00, 0x00, 0x00, 0x00, 0x00, ,
  0x00, 0x00, 0x00, 0x00, 0x00, 0x00, 0x00, 0x00, 0x00, 0x00, 0x00, 0x00, ,
  0x00, 0x00, 0x00, 0x00, 0x00, 0x00, 0x00, 0x00, 0x00, 0x00, 0x00, 0x00, ,
  0x00, 0x00, 0x00, 0x00, 0x00, 0x00, 0x00, 0x00, 0x00, 0x00, 0x00, 0x00, ,
  0x00, 0x00, 0x00, 0x00, 0x00, 0x00, 0x00, 0x00, 0x00, 0x00, 0x00, 0x00, ,
  0x00, 0x00, 0x00, 0x00, 0x00, 0x00, 0x00, 0x00, 0x00, 0x00, 0x00, 0x00, ,
  0x00, 0x00, 0x00, 0x00, 0x00, 0x00, 0x00, 0x00, 0x00, 0x00, 0x00, 0x00, ,
  0x00, 0x00, 0x00, 0x00, 0x00, 0x00, 0x00, 0x00, 0x00, 0x00, 0x00, 0x00, ,
  0x00, 0x00, 0x00, 0x00, 0x00, 0x00, 0x00, 0x00, 0x00, 0x00, 0x00, 0x00, ,
  0x00, 0x00, 0x00, 0x00, 0x00, 0x00, 0x00, 0x00, 0x00, 0x00, 0x00, 0x00, ,
  0x00, 0x00, 0x00, 0x00, 0x00, 0x00, 0x00, 0x00, 0x00, 0x00, 0x00, 0x00, ,
  0x00, 0x00, 0x00, 0x00, 0x00, 0x00, 0x00, 0x00, 0x00, 0x00, 0x00, 0x00, ,
  0x00, 0x00, 0x00, 0x00, 0x00, 0x00, 0x00, 0x00, 0x00, 0x00, 0x00, 0x00, ,
  0x00, 0x00, 0x00, 0x00, 0x00, 0x00, 0x00, 0x00, 0x00, 0x00, 0x00, 0x00, ,
  0x00, 0x00, 0x00, 0x00, 0x00, 0x00, 0x00, 0x00, 0x00, 0x00, 0x00, 0x00, ,
  0x00, 0x00, 0x00, 0x00, 0x00, 0x00, 0x00, 0x00, 0x00, 0x00, 0x00, 0x00, ,
  0x00, 0x00, 0x00, 0x00, 0x00, 0x00, 0x00, 0x00, 0x18, 0x00, 0x00, 0x00, ,
  0x24, 0xad, 0xb3, 0x38, 0xbf, 0xa0, 0x9d, 0x38, 0x2e, 0xaf, 0xf0, 0x38, ,
  0x4f, 0x7e, 0x00, 0x39, 0x5c, 0xc0, 0x97, 0x38, 0x8a, 0xdc, 0x18, 0x39, ,
  0x5d, 0xa5, 0xa8, 0x38, 0x9b, 0x59, 0xa0, 0x38, 0xdb, 0x9f, 0x8c, 0x38, ,
  0x3a, 0x59, 0xe5, 0x38, 0x76, 0xf8, 0xcf, 0x38, 0x8b, 0xef, 0xdf, 0x38, ,
  0x35, 0x11, 0x8a, 0x39, 0x35, 0x96, 0xd9, 0x38, 0xaf, 0xc8, 0xc6, 0x38, ,
  0x93, 0x4c, 0xab, 0x38, 0x61, 0x86, 0x20, 0x39, 0x28, 0x10, 0x1c, 0x39, ,
  0x8e, 0x10, 0xbc, 0x38, 0x10, 0xac, 0xa3, 0x38, 0xb1, 0xda, 0xf2, 0x38, ,
  0x54, 0x86, 0x03, 0x39, 0xf7, 0x41, 0x0c, 0x39, 0xe7, 0x98, 0x96, 0x38, ,
  0x12, 0x00, 0x00, 0x00, 0x74, 0x66, 0x6c, 0x2e, 0x70, 0x73, 0x65, 0x75, ,
  0x64, 0x6f, 0x5f, 0x71, 0x63, 0x6f, 0x6e, 0x73, 0x74, 0x38, 0x00, 0x00, ,
  0x01, 0x00, 0x00, 0x00, 0x18, 0x00, 0x00, 0x00, 0x02, 0xf3, 0xff, 0xff, ,
  0x00, 0x00, 0x00, 0x01, 0x14, 0x00, 0x00, 0x00, 0x88, 0x00, 0x00, 0x00, ,
  0x09, 0x00, 0x00, 0x00, 0x00, 0x00, 0x00, 0x09, 0x94, 0x00, 0x00, 0x00, ,
  0xec, 0xf2, 0xff, 0xff, 0x08, 0x00, 0x00, 0x00, 0x4c, 0x00, 0x00, 0x00, ,
  0x08, 0x00, 0x00, 0x00, 0x00, 0x00, 0x00, 0x00, 0x00, 0x00, 0x00, 0x00, ,
  0x00, 0x00, 0x00, 0x00, 0x00, 0x00, 0x00, 0x00, 0x00, 0x00, 0x00, 0x00, ,
  0x00, 0x00, 0x00, 0x00, 0x00, 0x00, 0x00, 0x00, 0x00, 0x00, 0x00, 0x00, ,
  0x00, 0x00, 0x00, 0x00, 0x00, 0x00, 0x00, 0x00, 0x00, 0x00, 0x00, 0x00, ,
  0x00, 0x00, 0x00, 0x00, 0x00, 0x00, 0x00, 0x00, 0x00, 0x00, 0x00, 0x00, ,
  0x00, 0x00, 0x00, 0x00, 0x00, 0x00, 0x00, 0x00, 0x00, 0x00, 0x00, 0x00, ,
  0x08, 0x00, 0x00, 0x00, 0x8b, 0x51, 0xef, 0x3b, 0x89, 0x5c, 0x83, 0x3b, ,
  0x47, 0xca, 0x26, 0x3c, 0x99, 0x35, 0x28, 0x3b, 0x80, 0x80, 0x38, 0x3b, ,
  0xee, 0xf8, 0x5e, 0x3c, 0x54, 0xca, 0xb8, 0x3b, 0x53, 0x5f, 0x96, 0x3b, ,
  0x12, 0x00, 0x00, 0x00, 0x74, 0x66, 0x6c, 0x2e, 0x70, 0x73, 0x65, 0x75, ,
  0x64, 0x6f, 0x5f, 0x71, 0x63, 0x6f, 0x6e, 0x73, 0x74, 0x37, 0x00, 0x00, ,
  0x02, 0x00, 0x00, 0x00, 0x08, 0x00, 0x00, 0x00, 0x18, 0x00, 0x00, 0x00, ,
  0xba, 0xf3, 0xff, 0xff, 0x00, 0x00, 0x00, 0x01, 0x14, 0x00, 0x00, 0x00, ,
  0x84, 0x00, 0x00, 0x00, 0x08, 0x00, 0x00, 0x00, 0x00, 0x00, 0x00, 0x02, ,
  0x90, 0x00, 0x00, 0x00, 0xa4, 0xf3, 0xff, 0xff, 0x08, 0x00, 0x00, 0x00, ,
  0x48, 0x00, 0x00, 0x00, 0x08, 0x00, 0x00, 0x00, 0x00, 0x00, 0x00, 0x00, ,
  0x00, 0x00, 0x00, 0x00, 0x00, 0x00, 0x00, 0x00, 0x00, 0x00, 0x00, 0x00, ,
  0x00, 0x00, 0x00, 0x00, 0x00, 0x00, 0x00, 0x00, 0x00, 0x00, 0x00, 0x00, ,
  0x00, 0x00, 0x00, 0x00, 0x00, 0x00, 0x00, 0x00, 0x00, 0x00, 0x00, 0x00, ,
  0x00, 0x00, 0x00, 0x00, 0x00, 0x00, 0x00, 0x00, 0x00, 0x00, 0x00, 0x00, ,
  0x00, 0x00, 0x00, 0x00, 0x00, 0x00, 0x00, 0x00, 0x00, 0x00, 0x00, 0x00, ,
  0x08, 0x00, 0x00, 0x00, 0xb7, 0xb1, 0x52, 0x39, 0x9d, 0x4c, 0xe7, 0x38, ,
  0x3d, 0xd7, 0x92, 0x39, 0x1a, 0x17, 0x94, 0x38, 0x22, 0x6f, 0xa2, 0x38, ,
  0x9d, 0x4d, 0xc4, 0x39, 0x21, 0xb0, 0x22, 0x39, 0xfd, 0x62, 0x04, 0x39, ,
  0x12, 0x00, 0x00, 0x00, 0x74, 0x66, 0x6c, 0x2e, 0x70, 0x73, 0x65, 0x75, ,
  0x64, 0x6f, 0x5f, 0x71, 0x63, 0x6f, 0x6e, 0x73, 0x74, 0x36, 0x00, 0x00, ,
  0x01, 0x00, 0x00, 0x00, 0x08, 0x00, 0x00, 0x00, 0x6a, 0xf4, 0xff, 0xff, ,
  0x00, 0x00, 0x00, 0x01, 0x14, 0x00, 0x00, 0x00, 0x48, 0x01, 0x00, 0x00, ,
  0x07, 0x00, 0x00, 0x00, 0x00, 0x00, 0x00, 0x09, 0x54, 0x01, 0x00, 0x00, ,
  0x54, 0xf4, 0xff, 0xff, 0x08, 0x00, 0x00, 0x00, 0xcc, 0x00, 0x00, 0x00, ,
  0x18, 0x00, 0x00, 0x00, 0x00, 0x00, 0x00, 0x00, 0x00, 0x00, 0x00, 0x00, ,
  0x00, 0x00, 0x00, 0x00, 0x00, 0x00, 0x00, 0x00, 0x00, 0x00, 0x00, 0x00, ,
  0x00, 0x00, 0x00, 0x00, 0x00, 0x00, 0x00, 0x00, 0x00, 0x00, 0x00, 0x00, ,
  0x00, 0x00, 0x00, 0x00, 0x00, 0x00, 0x00, 0x00, 0x00, 0x00, 0x00, 0x00, ,
  0x00, 0x00, 0x00, 0x00, 0x00, 0x00, 0x00, 0x00, 0x00, 0x00, 0x00, 0x00, ,
  0x00, 0x00, 0x00, 0x00, 0x00, 0x00, 0x00, 0x00, 0x00, 0x00, 0x00, 0x00, ,
  0x00, 0x00, 0x00, 0x00, 0x00, 0x00, 0x00, 0x00, 0x00, 0x00, 0x00, 0x00, ,
  0x00, 0x00, 0x00, 0x00, 0x00, 0x00, 0x00, 0x00, 0x00, 0x00, 0x00, 0x00, ,
  0x00, 0x00, 0x00, 0x00, 0x00, 0x00, 0x00, 0x00, 0x00, 0x00, 0x00, 0x00, ,
  0x00, 0x00, 0x00, 0x00, 0x00, 0x00, 0x00, 0x00, 0x00, 0x00, 0x00, 0x00, ,
  0x00, 0x00, 0x00, 0x00, 0x00, 0x00, 0x00, 0x00, 0x00, 0x00, 0x00, 0x00, ,
  0x00, 0x00, 0x00, 0x00, 0x00, 0x00, 0x00, 0x00, 0x00, 0x00, 0x00, 0x00, ,
  0x00, 0x00, 0x00, 0x00, 0x00, 0x00, 0x00, 0x00, 0x00, 0x00, 0x00, 0x00, ,
  0x00, 0x00, 0x00, 0x00, 0x00, 0x00, 0x00, 0x00, 0x00, 0x00, 0x00, 0x00, ,
  0x00, 0x00, 0x00, 0x00, 0x00, 0x00, 0x00, 0x00, 0x00, 0x00, 0x00, 0x00, ,
  0x00, 0x00, 0x00, 0x00, 0x00, 0x00, 0x00, 0x00, 0x00, 0x00, 0x00, 0x00, ,
  0x00, 0x00, 0x00, 0x00, 0x00, 0x00, 0x00, 0x00, 0x18, 0x00, 0x00, 0x00, ,
  0x96, 0x2c, 0x33, 0x3b, 0x7d, 0x7f, 0xa5, 0x3b, 0x5c, 0x97, 0x3f, 0x3b, ,
  0xa2, 0x97, 0x83, 0x3b, 0x27, 0x56, 0xbb, 0x3b, 0xa0, 0xf0, 0x68, 0x3b, ,
  0x76, 0x3a, 0x67, 0x3b, 0x4e, 0x18, 0x47, 0x3b, 0x9b, 0x3c, 0x3d, 0x3b, ,
  0x36, 0x26, 0x38, 0x3b, 0x34, 0x12, 0x54, 0x3b, 0x83, 0x8e, 0x78, 0x3b, ,
  0x4a, 0xcc, 0x3a, 0x3b, 0x53, 0x56, 0x85, 0x3b, 0xa6, 0x3d, 0x4e, 0x3b, ,
  0x34, 0x9c, 0x61, 0x3b, 0x70, 0x73, 0x53, 0x3b, 0xa6, 0xa5, 0x52, 0x3b, ,
